const unsigned char model[] = {
  0x20, 0x00, 0x00, 0x00, 0x54, 0x46, 0x4c, 0x33, 0x00, 0x00, 0x00, 0x00,
  0x00, 0x00, 0x12, 0x00, 0x1c, 0x00, 0x04, 0x00, 0x08, 0x00, 0x0c, 0x00,
  0x10, 0x00, 0x14, 0x00, 0x00, 0x00, 0x18, 0x00, 0x12, 0x00, 0x00, 0x00,
  0x03, 0x00, 0x00, 0x00, 0x40, 0x5b, 0x01, 0x00, 0x94, 0x50, 0x01, 0x00,
  0x7c, 0x50, 0x01, 0x00, 0x3c, 0x00, 0x00, 0x00, 0x04, 0x00, 0x00, 0x00,
  0x01, 0x00, 0x00, 0x00, 0x0c, 0x00, 0x00, 0x00, 0x08, 0x00, 0x0c, 0x00,
  0x04, 0x00, 0x08, 0x00, 0x08, 0x00, 0x00, 0x00, 0x08, 0x00, 0x00, 0x00,
  0x0f, 0x00, 0x00, 0x00, 0x13, 0x00, 0x00, 0x00, 0x6d, 0x69, 0x6e, 0x5f,
  0x72, 0x75, 0x6e, 0x74, 0x69, 0x6d, 0x65, 0x5f, 0x76, 0x65, 0x72, 0x73,
  0x69, 0x6f, 0x6e, 0x00, 0x10, 0x00, 0x00, 0x00, 0x28, 0x50, 0x01, 0x00,
  0x14, 0x50, 0x01, 0x00, 0x68, 0x4e, 0x01, 0x00, 0x24, 0x4d, 0x01, 0x00,
  0xe0, 0x4b, 0x01, 0x00, 0xbc, 0x4b, 0x01, 0x00, 0xb8, 0x34, 0x00, 0x00,
  0x54, 0x17, 0x00, 0x00, 0x40, 0x01, 0x00, 0x00, 0x8c, 0x00, 0x00, 0x00,
  0x80, 0x00, 0x00, 0x00, 0x6c, 0x00, 0x00, 0x00, 0x58, 0x00, 0x00, 0x00,
  0x44, 0x00, 0x00, 0x00, 0x30, 0x00, 0x00, 0x00, 0x04, 0x00, 0x00, 0x00,
  0x4e, 0xaf, 0xfe, 0xff, 0x04, 0x00, 0x00, 0x00, 0x10, 0x00, 0x00, 0x00,
  0x31, 0x2e, 0x35, 0x2e, 0x30, 0x00, 0x00, 0x00, 0x00, 0x00, 0x00, 0x00,
  0x00, 0x00, 0x00, 0x00, 0x00, 0x00, 0x00, 0x00, 0x00, 0x00, 0x00, 0x00,
  0x00, 0x00, 0x00, 0x00, 0x44, 0xaf, 0xfe, 0xff, 0x00, 0x00, 0x00, 0x00,
  0x00, 0x00, 0x00, 0x00, 0x00, 0x00, 0x00, 0x00, 0x54, 0xaf, 0xfe, 0xff,
  0x00, 0x00, 0x00, 0x00, 0x00, 0x00, 0x00, 0x00, 0x00, 0x00, 0x00, 0x00,
  0x64, 0xaf, 0xfe, 0xff, 0x00, 0x00, 0x00, 0x00, 0x00, 0x00, 0x00, 0x00,
  0x00, 0x00, 0x00, 0x00, 0x74, 0xaf, 0xfe, 0xff, 0x00, 0x00, 0x00, 0x00,
  0x00, 0x00, 0x00, 0x00, 0x00, 0x00, 0x00, 0x00, 0x84, 0xaf, 0xfe, 0xff,
  0x00, 0x00, 0x00, 0x00, 0xbe, 0xaf, 0xfe, 0xff, 0x04, 0x00, 0x00, 0x00,
  0x96, 0x00, 0x00, 0x00, 0x00, 0x00, 0x00, 0x9e, 0x4d, 0x00, 0x00, 0x6f,
  0x00, 0x00, 0x00, 0x00, 0x00, 0x00, 0x00, 0x00, 0x00, 0x00, 0x90, 0x00,
  0x00, 0x00, 0x00, 0x00, 0x96, 0x00, 0x00, 0x8b, 0x5e, 0x00, 0x00, 0x62,
  0x00, 0x00, 0x00, 0x00, 0x00, 0x7f, 0x00, 0x7e, 0x00, 0x6b, 0x9d, 0xa1,
  0xa4, 0x00, 0x00, 0x00, 0x00, 0x00, 0x00, 0xa9, 0x00, 0x00, 0x6d, 0x00,
  0xb1, 0x00, 0x00, 0x00, 0x00, 0xa4, 0x00, 0x8f, 0x00, 0x00, 0x00, 0x00,
  0x6b, 0x00, 0x5a, 0x00, 0xa4, 0x00, 0x00, 0x00, 0x00, 0x00, 0x00, 0x00,
  0x00, 0x00, 0x00, 0x00, 0x00, 0x00, 0x00, 0x00, 0x00, 0x50, 0x00, 0x00,
  0x00, 0x00, 0x00, 0x00, 0x00, 0x76, 0x6c, 0x54, 0x00, 0x85, 0x00, 0x00,
  0x83, 0x00, 0x9b, 0x00, 0x00, 0x00, 0x00, 0xa8, 0x8f, 0xa1, 0x00, 0x8f,
  0x00, 0x00, 0x00, 0x00, 0x00, 0x00, 0x00, 0x00, 0x73, 0x98, 0x00, 0x00,
  0x8a, 0x00, 0x6d, 0xb5, 0x00, 0x00, 0x00, 0x00, 0x5c, 0x00, 0x00, 0x00,
  0x00, 0x00, 0x00, 0x00, 0x94, 0x00, 0x91, 0x00, 0x00, 0x00, 0x00, 0x00,
  0x00, 0x00, 0x00, 0x00, 0x00, 0x00, 0x00, 0x00, 0x00, 0x00, 0x00, 0x00,
  0x6e, 0xb0, 0xfe, 0xff, 0x04, 0x00, 0x00, 0x00, 0xf9, 0x15, 0x00, 0x00,
  0x00, 0x00, 0x00, 0xcc, 0x00, 0x00, 0x2f, 0x00, 0x00, 0xce, 0xc4, 0x00,
  0xc7, 0x00, 0x00, 0x00, 0x00, 0x00, 0x00, 0xcf, 0xb3, 0x00, 0x00, 0x00,
  0x00, 0x31, 0x00, 0x41, 0x00, 0x00, 0x00, 0x00, 0xca, 0xbb, 0x00, 0x00,
  0x00, 0x00, 0x00, 0x00, 0x35, 0x00, 0xd0, 0x00, 0x34, 0x00, 0x00, 0x00,
  0x39, 0x43, 0x00, 0x00, 0x30, 0x2f, 0x00, 0xc8, 0x00, 0x00, 0x4e, 0x00,
  0x00, 0x00, 0x00, 0x00, 0xc6, 0x00, 0xc8, 0x33, 0xd0, 0x00, 0xce, 0x00,
  0x00, 0x00, 0x00, 0x00, 0x00, 0x38, 0xc6, 0x00, 0x00, 0x00, 0x00, 0x00,
  0x00, 0x00, 0x00, 0x00, 0x00, 0x00, 0x35, 0x34, 0x00, 0x00, 0x2f, 0x00,
  0x00, 0x00, 0x00, 0x00, 0xc1, 0x3d, 0x00, 0xbe, 0x00, 0xc7, 0x00, 0x2f,
  0x00, 0x00, 0xbd, 0x00, 0x00, 0xc1, 0x30, 0x00, 0xcc, 0x00, 0x00, 0x00,
  0x00, 0x2e, 0x00, 0x00, 0x00, 0x00, 0x00, 0x00, 0x00, 0x00, 0x00, 0x00,
  0x00, 0x37, 0xcd, 0xc0, 0x00, 0x00, 0x00, 0x00, 0xcb, 0xc5, 0x31, 0xcf,
  0x00, 0x00, 0x00, 0x00, 0x00, 0x00, 0x00, 0x00, 0x00, 0x00, 0x00, 0x00,
  0x00, 0x32, 0x00, 0x00, 0x00, 0x00, 0xce, 0x00, 0x00, 0x00, 0x00, 0x00,
  0x00, 0x00, 0x00, 0xca, 0x34, 0x00, 0xc8, 0x30, 0x39, 0x00, 0x00, 0x00,
  0xc2, 0x00, 0x00, 0x00, 0x00, 0x00, 0x00, 0x00, 0x00, 0x00, 0x00, 0x00,
  0x00, 0x31, 0x00, 0x00, 0x00, 0x00, 0x00, 0x00, 0x00, 0x00, 0x00, 0x00,
  0x00, 0x00, 0x00, 0x00, 0x34, 0x00, 0x00, 0xd1, 0x00, 0x00, 0x00, 0xcc,
  0x00, 0x00, 0x00, 0x00, 0x00, 0x00, 0x00, 0x00, 0x00, 0x00, 0x65, 0x00,
  0x00, 0x00, 0x00, 0xc7, 0x3c, 0x00, 0xca, 0x00, 0x3b, 0x00, 0x00, 0x00,
  0x00, 0x00, 0x00, 0x48, 0x00, 0x00, 0x00, 0x00, 0x00, 0x00, 0x00, 0x53,
  0x00, 0x3e, 0x00, 0x00, 0x00, 0xaf, 0x00, 0x00, 0x00, 0x00, 0x00, 0x00,
  0x00, 0x00, 0x00, 0x66, 0x5c, 0x3e, 0x00, 0x00, 0x2f, 0x00, 0x00, 0x00,
  0x00, 0xa1, 0x00, 0x00, 0x00, 0x00, 0x56, 0x00, 0x00, 0x00, 0x56, 0x58,
  0x00, 0x00, 0x00, 0x62, 0x30, 0x00, 0x00, 0x00, 0x8f, 0x00, 0xc5, 0x00,
  0x00, 0x00, 0x00, 0x00, 0x00, 0x00, 0x4a, 0x00, 0x00, 0x00, 0x00, 0x00,
  0x58, 0x00, 0x00, 0x00, 0x61, 0x00, 0xcc, 0x00, 0x00, 0x00, 0xbc, 0x00,
  0x00, 0x00, 0x00, 0xd1, 0x00, 0x58, 0x3a, 0x57, 0x00, 0x00, 0x00, 0x00,
  0x00, 0x00, 0x00, 0x00, 0x00, 0x49, 0x00, 0x00, 0x35, 0x58, 0x00, 0x00,
  0x00, 0x00, 0x3f, 0x00, 0x00, 0x00, 0x00, 0x00, 0x31, 0x00, 0xc4, 0x00,
  0x00, 0x00, 0xb5, 0x00, 0x00, 0x00, 0x00, 0x00, 0x00, 0xca, 0xc0, 0x00,
  0x00, 0x46, 0x00, 0x00, 0x46, 0x00, 0x00, 0x00, 0x00, 0x3f, 0x00, 0x00,
  0x00, 0xcc, 0x00, 0x00, 0x00, 0x00, 0x00, 0x00, 0xc1, 0xcc, 0x2e, 0x00,
  0x37, 0x00, 0x00, 0x00, 0x00, 0x00, 0x00, 0x00, 0x00, 0xd1, 0x00, 0xc5,
  0x00, 0x00, 0x3e, 0x00, 0x00, 0x00, 0x00, 0x00, 0x00, 0xd1, 0x00, 0x00,
  0x00, 0x00, 0x00, 0x00, 0x00, 0x00, 0x00, 0x00, 0x00, 0x00, 0xd0, 0x00,
  0x00, 0x47, 0x00, 0x00, 0x46, 0x00, 0x00, 0x38, 0x00, 0x00, 0x00, 0x00,
  0x00, 0xcc, 0xbe, 0xcf, 0x00, 0x00, 0x00, 0x30, 0x00, 0x00, 0xc5, 0x00,
  0x00, 0x00, 0x00, 0x00, 0xbe, 0x00, 0x33, 0xcd, 0x00, 0x3f, 0x32, 0xc5,
  0x00, 0x00, 0x00, 0x00, 0x00, 0x00, 0x00, 0x30, 0x00, 0x00, 0x00, 0x00,
  0x00, 0x3b, 0x40, 0x00, 0x00, 0x00, 0x00, 0x00, 0x00, 0x00, 0x00, 0xc4,
  0xc7, 0x00, 0x2e, 0x00, 0x00, 0x00, 0x41, 0xc4, 0x00, 0x2f, 0x00, 0x00,
  0x00, 0x00, 0x00, 0x00, 0x00, 0x00, 0x00, 0x00, 0xca, 0x00, 0x00, 0x3a,
  0x00, 0xc0, 0x00, 0x00, 0x00, 0x00, 0x00, 0x35, 0x00, 0x00, 0x00, 0x00,
  0x00, 0x00, 0x00, 0x00, 0xbd, 0x00, 0x33, 0x00, 0x00, 0x00, 0x00, 0xac,
  0x75, 0x00, 0x00, 0x00, 0xd1, 0x00, 0x57, 0x2f, 0x00, 0x00, 0x00, 0x00,
  0x00, 0x00, 0x00, 0x00, 0x00, 0x00, 0x00, 0x79, 0x3b, 0x00, 0x00, 0x00,
  0x00, 0x00, 0x00, 0x00, 0x00, 0x00, 0x00, 0xc3, 0x00, 0x00, 0x00, 0x00,
  0x00, 0x6e, 0x00, 0x00, 0x00, 0x00, 0x00, 0x00, 0x00, 0x00, 0x00, 0xbc,
  0xbe, 0x37, 0x00, 0x00, 0x35, 0x00, 0xcc, 0x00, 0x00, 0x00, 0x00, 0x00,
  0x00, 0x00, 0xc7, 0x00, 0x00, 0x00, 0x00, 0x00, 0xc7, 0xc2, 0x00, 0x00,
  0x00, 0x00, 0x00, 0x00, 0xbb, 0xbe, 0x00, 0x00, 0x00, 0x00, 0x33, 0x00,
  0x00, 0x00, 0x00, 0x00, 0x00, 0x00, 0xcc, 0x00, 0x00, 0x00, 0x00, 0x00,
  0x00, 0x00, 0xbb, 0x00, 0x00, 0x00, 0xcf, 0x00, 0x00, 0x00, 0x00, 0x31,
  0x00, 0x00, 0xb9, 0x00, 0x00, 0x00, 0x00, 0x00, 0x00, 0x00, 0x00, 0x00,
  0xc4, 0x00, 0xc2, 0x00, 0x32, 0x00, 0xb9, 0xbf, 0x00, 0x3e, 0x00, 0x00,
  0x00, 0x00, 0x00, 0x45, 0x00, 0xd0, 0x32, 0x00, 0x00, 0xc3, 0x00, 0x00,
  0xc4, 0x00, 0x00, 0x00, 0x00, 0x35, 0x39, 0x00, 0x56, 0x38, 0xc6, 0x00,
  0x00, 0xc1, 0x00, 0x00, 0x3c, 0x38, 0x37, 0x00, 0x39, 0x00, 0x00, 0x00,
  0x00, 0x00, 0x00, 0x00, 0x00, 0x00, 0xc6, 0xd1, 0x00, 0x00, 0x00, 0x00,
  0x00, 0x00, 0x00, 0x00, 0xc5, 0xc4, 0x00, 0x38, 0x00, 0xcf, 0x00, 0x00,
  0x00, 0xcd, 0xc6, 0x00, 0x00, 0x00, 0xb8, 0x00, 0x00, 0x00, 0x3a, 0x00,
  0x00, 0x00, 0x00, 0x00, 0x00, 0x33, 0x00, 0x3e, 0xc8, 0xc5, 0x33, 0x00,
  0x00, 0xc9, 0x3b, 0x00, 0x00, 0x00, 0xc6, 0x00, 0x00, 0x00, 0xc5, 0x00,
  0x00, 0x34, 0x00, 0x00, 0x33, 0x00, 0x00, 0x00, 0x30, 0x00, 0x00, 0x00,
  0x00, 0xbc, 0x00, 0x00, 0x00, 0xcc, 0x3a, 0x00, 0x00, 0x00, 0x00, 0xc4,
  0x00, 0x00, 0x34, 0x00, 0x36, 0x35, 0x00, 0x00, 0x2f, 0x00, 0x00, 0xc8,
  0x00, 0x00, 0x00, 0x00, 0x00, 0x00, 0xc9, 0xd1, 0x00, 0x00, 0x00, 0x00,
  0x00, 0x00, 0x00, 0x00, 0x00, 0x00, 0x00, 0x00, 0x00, 0x00, 0x3e, 0x00,
  0x00, 0x00, 0x00, 0xce, 0x00, 0x00, 0x00, 0x3e, 0x00, 0x00, 0x00, 0x00,
  0xd1, 0x00, 0x00, 0x00, 0x00, 0xc3, 0x00, 0x3f, 0x00, 0x00, 0x00, 0x00,
  0x00, 0xcb, 0x00, 0x00, 0x00, 0xc4, 0x00, 0x00, 0x00, 0x2f, 0x00, 0x00,
  0x00, 0x00, 0x00, 0x00, 0x00, 0x00, 0x00, 0x37, 0x00, 0xcd, 0x00, 0x00,
  0x00, 0x00, 0x45, 0x00, 0x00, 0x00, 0x31, 0x00, 0x00, 0x00, 0x00, 0x4f,
  0x4b, 0x00, 0xd0, 0x00, 0x40, 0x42, 0x00, 0x00, 0x00, 0xc3, 0x00, 0x00,
  0x00, 0x00, 0xc6, 0x00, 0x00, 0x3c, 0xc7, 0x00, 0x00, 0xb3, 0x00, 0x00,
  0x3c, 0x00, 0x00, 0xcf, 0x00, 0x00, 0x00, 0x00, 0xd0, 0x40, 0x00, 0x00,
  0x00, 0x00, 0x00, 0x00, 0x30, 0x00, 0x00, 0x48, 0x00, 0x00, 0x00, 0x00,
  0x00, 0x00, 0x00, 0x00, 0x32, 0x00, 0x00, 0x00, 0x00, 0x00, 0x00, 0x00,
  0x00, 0xbc, 0x00, 0x00, 0x00, 0x00, 0x00, 0x00, 0x00, 0x00, 0xbb, 0x00,
  0x00, 0x00, 0x00, 0x00, 0x00, 0x40, 0x00, 0x00, 0xc4, 0x00, 0x00, 0xc8,
  0x00, 0x3a, 0x00, 0x00, 0x00, 0xc7, 0x00, 0x00, 0x00, 0x00, 0x00, 0x00,
  0x32, 0x00, 0x00, 0x43, 0x3b, 0x31, 0x00, 0x00, 0x00, 0x31, 0x00, 0xbb,
  0x00, 0xcf, 0x3b, 0x00, 0xcc, 0x00, 0x00, 0x00, 0x00, 0x00, 0x38, 0x00,
  0xc3, 0xcd, 0x00, 0xc3, 0x00, 0x00, 0x38, 0x00, 0x00, 0x00, 0x00, 0x00,
  0x00, 0x00, 0x42, 0x00, 0x00, 0x33, 0x00, 0xca, 0x00, 0x36, 0x00, 0x00,
  0x3b, 0x00, 0x00, 0x00, 0x00, 0x00, 0x00, 0xca, 0x41, 0x2f, 0x00, 0xd1,
  0x00, 0x00, 0x00, 0x00, 0x00, 0x00, 0x00, 0x00, 0x00, 0x00, 0x00, 0x00,
  0x00, 0x00, 0x31, 0x39, 0xbc, 0x00, 0xd0, 0x00, 0xcd, 0x00, 0xbb, 0x00,
  0x00, 0x00, 0x00, 0x00, 0x41, 0x00, 0x00, 0x00, 0x00, 0x00, 0x00, 0x00,
  0x00, 0x00, 0x00, 0x00, 0x32, 0x00, 0x00, 0x00, 0x00, 0x00, 0x00, 0xc0,
  0xc3, 0x00, 0xc0, 0x00, 0x00, 0xc7, 0x00, 0x00, 0x00, 0x00, 0x00, 0x00,
  0xc3, 0xce, 0x00, 0xd1, 0x00, 0x00, 0x42, 0x00, 0x00, 0x00, 0x00, 0x00,
  0x00, 0x00, 0x00, 0x00, 0x00, 0x00, 0xc1, 0x00, 0x00, 0x00, 0x00, 0x00,
  0x36, 0x00, 0xca, 0x00, 0x00, 0xbd, 0x00, 0x00, 0x3f, 0x00, 0x30, 0x31,
  0x00, 0x00, 0x00, 0x00, 0x44, 0x00, 0x00, 0x00, 0x00, 0x00, 0x35, 0x38,
  0x00, 0x00, 0x00, 0x00, 0x00, 0x00, 0x00, 0x45, 0x00, 0x00, 0x00, 0x00,
  0xd1, 0x00, 0x00, 0xc8, 0x00, 0x00, 0x56, 0x30, 0x32, 0xd0, 0xbd, 0x00,
  0x00, 0x00, 0x00, 0x00, 0x00, 0x00, 0x00, 0x00, 0x00, 0x00, 0x00, 0x00,
  0xc6, 0x00, 0x00, 0x00, 0x00, 0xc2, 0x00, 0x00, 0x00, 0xc7, 0x00, 0x00,
  0x33, 0x00, 0x00, 0xcd, 0x00, 0x00, 0x00, 0x00, 0x00, 0x39, 0x00, 0x3d,
  0x00, 0x00, 0x00, 0x00, 0x00, 0x53, 0x00, 0x00, 0x00, 0x32, 0x00, 0x2f,
  0xd1, 0x00, 0x34, 0x00, 0x00, 0x00, 0x00, 0x00, 0x00, 0x3f, 0x00, 0x00,
  0x00, 0x00, 0x4b, 0x00, 0x00, 0xd1, 0x00, 0x00, 0x32, 0x00, 0xc4, 0x00,
  0x00, 0xbe, 0x00, 0x00, 0x00, 0x00, 0x38, 0x00, 0x00, 0x00, 0x35, 0x3e,
  0x00, 0xc9, 0x34, 0x00, 0x00, 0x00, 0xc7, 0x00, 0x00, 0x00, 0xca, 0x00,
  0x44, 0x00, 0x00, 0x00, 0x00, 0x00, 0x00, 0x00, 0xcd, 0x00, 0xcf, 0x00,
  0x38, 0xc7, 0xbf, 0x33, 0x00, 0x00, 0x00, 0x34, 0x00, 0x00, 0x00, 0x00,
  0x32, 0x00, 0x00, 0xc3, 0x00, 0x33, 0xbd, 0x00, 0x00, 0x00, 0x00, 0x00,
  0xd0, 0x00, 0xbc, 0xcf, 0xbd, 0x00, 0x00, 0x00, 0x00, 0xc5, 0x00, 0xc9,
  0x30, 0x3c, 0x00, 0x00, 0x00, 0xd0, 0x00, 0x00, 0xcc, 0x00, 0x00, 0x00,
  0x00, 0x00, 0x00, 0x00, 0xd1, 0x00, 0x00, 0x00, 0x00, 0x00, 0xcb, 0x00,
  0x00, 0x00, 0xc9, 0x00, 0x00, 0xcf, 0x00, 0x00, 0x00, 0x00, 0x00, 0x00,
  0x00, 0x3f, 0x36, 0x00, 0x00, 0x00, 0x00, 0x00, 0x00, 0xc3, 0x00, 0xb3,
  0x00, 0x49, 0x00, 0xc0, 0x00, 0x00, 0x00, 0x3e, 0x00, 0x00, 0x00, 0x2f,
  0x00, 0x00, 0x00, 0x00, 0x00, 0x00, 0x00, 0x00, 0x00, 0x00, 0x33, 0x00,
  0x00, 0x70, 0x00, 0xb2, 0x00, 0x00, 0x00, 0x00, 0x00, 0x00, 0x00, 0x00,
  0x00, 0x00, 0x3f, 0x43, 0x00, 0x34, 0x60, 0x00, 0x00, 0x00, 0x00, 0x34,
  0x00, 0x00, 0x00, 0xcc, 0x00, 0x00, 0x00, 0x00, 0x00, 0x00, 0xcc, 0x00,
  0x00, 0x00, 0x00, 0x00, 0x00, 0x00, 0x00, 0x3c, 0x00, 0x00, 0xc7, 0x48,
  0x00, 0x00, 0x00, 0x00, 0xc9, 0x00, 0x00, 0x00, 0x00, 0x00, 0xc7, 0x00,
  0x36, 0x00, 0x00, 0x00, 0x00, 0x00, 0x00, 0x00, 0xd0, 0x00, 0x00, 0x00,
  0x00, 0xd1, 0xce, 0x47, 0x00, 0x00, 0x00, 0x00, 0x00, 0x00, 0x00, 0x00,
  0x00, 0xc3, 0x00, 0xd1, 0x3b, 0x00, 0xcf, 0x00, 0x34, 0x00, 0x40, 0x00,
  0x00, 0x39, 0x37, 0x00, 0x00, 0x36, 0x00, 0x00, 0x00, 0x00, 0xcc, 0x00,
  0x00, 0xc4, 0x00, 0x00, 0x00, 0x00, 0x35, 0x00, 0x00, 0x37, 0x00, 0x00,
  0x00, 0x00, 0x32, 0x00, 0x43, 0x00, 0xbc, 0x36, 0x00, 0xd0, 0xbe, 0x00,
  0x00, 0x00, 0x00, 0x00, 0x43, 0x00, 0x00, 0x00, 0x00, 0x00, 0x00, 0x00,
  0x00, 0x00, 0x00, 0x33, 0x00, 0x45, 0x00, 0x00, 0x3c, 0x44, 0x00, 0x37,
  0x00, 0x2f, 0xcb, 0xb7, 0x00, 0x00, 0x00, 0x00, 0x33, 0x00, 0xc9, 0xc2,
  0x00, 0x00, 0x00, 0x00, 0x00, 0x00, 0x00, 0x3c, 0xc8, 0x00, 0x00, 0x34,
  0x00, 0xd0, 0x41, 0x00, 0x00, 0x00, 0x00, 0x00, 0x00, 0x00, 0x00, 0x42,
  0x00, 0x00, 0xbf, 0x00, 0xbd, 0xc9, 0xbc, 0x00, 0xce, 0x00, 0x35, 0x00,
  0x00, 0xc6, 0x00, 0x00, 0x37, 0x00, 0x00, 0x00, 0x00, 0xd0, 0xcc, 0x2f,
  0x00, 0x32, 0x00, 0xc2, 0x00, 0x00, 0x00, 0xbf, 0x00, 0x00, 0x00, 0x00,
  0xcb, 0x00, 0xc9, 0x00, 0x00, 0x33, 0x00, 0x00, 0x00, 0x00, 0x30, 0x00,
  0xc2, 0xc3, 0x00, 0xca, 0x00, 0x00, 0xce, 0xce, 0x00, 0x00, 0x00, 0x00,
  0x00, 0x3f, 0xbb, 0xc8, 0x00, 0x00, 0xcf, 0x41, 0x3d, 0x00, 0x00, 0xcc,
  0x00, 0x00, 0x00, 0x30, 0x00, 0x00, 0x36, 0x00, 0x00, 0x00, 0x00, 0x00,
  0x00, 0x00, 0xbf, 0x00, 0x00, 0x00, 0x00, 0x00, 0x00, 0x00, 0x00, 0x00,
  0x00, 0x00, 0x00, 0x00, 0x00, 0x00, 0x00, 0x00, 0xc9, 0x00, 0x00, 0x00,
  0x00, 0x70, 0x00, 0xba, 0x00, 0x00, 0x00, 0x00, 0x00, 0x00, 0x00, 0x53,
  0x00, 0x00, 0x00, 0x00, 0x3f, 0x3a, 0x52, 0x00, 0x5d, 0x52, 0x00, 0x00,
  0x00, 0x00, 0x52, 0x00, 0x00, 0x00, 0x00, 0x00, 0x00, 0x00, 0x00, 0xcb,
  0x72, 0x54, 0xc6, 0x35, 0x00, 0x00, 0x00, 0x00, 0x00, 0x00, 0x00, 0x00,
  0x00, 0xb0, 0x00, 0x00, 0x5c, 0x00, 0xbc, 0x00, 0x00, 0x00, 0x49, 0x00,
  0x00, 0x00, 0xc6, 0x00, 0x00, 0x00, 0x00, 0x00, 0x00, 0x00, 0x00, 0xab,
  0x00, 0x00, 0x00, 0x71, 0x54, 0x00, 0xb0, 0x00, 0x39, 0x00, 0x00, 0x00,
  0x00, 0x00, 0x00, 0x00, 0x00, 0xcb, 0x00, 0x00, 0x00, 0x00, 0x00, 0x63,
  0x00, 0x3a, 0x00, 0x00, 0x39, 0x00, 0x00, 0x6b, 0x00, 0x00, 0x36, 0x00,
  0x00, 0x00, 0x00, 0x4c, 0x00, 0x00, 0x00, 0x00, 0xcb, 0x3a, 0x43, 0x00,
  0x00, 0xb8, 0x00, 0x00, 0x00, 0xb5, 0x00, 0x00, 0xb7, 0x00, 0x33, 0x00,
  0x00, 0x00, 0x00, 0x00, 0x00, 0x00, 0x35, 0x00, 0x00, 0xb7, 0x00, 0x3b,
  0x00, 0x00, 0x00, 0x00, 0x00, 0xbc, 0x00, 0x00, 0x00, 0xb2, 0x00, 0x00,
  0x3e, 0x00, 0xc6, 0x52, 0x00, 0x00, 0x35, 0x00, 0x00, 0x00, 0x49, 0x00,
  0x00, 0x4d, 0x46, 0x00, 0x00, 0x00, 0x00, 0x00, 0x00, 0x00, 0x00, 0x00,
  0x00, 0x00, 0x00, 0x00, 0x2f, 0x00, 0x41, 0x32, 0x00, 0x00, 0x00, 0x00,
  0x00, 0x3b, 0x00, 0xcd, 0xd1, 0x00, 0x00, 0x00, 0xc6, 0x00, 0x34, 0x00,
  0x31, 0x00, 0x00, 0xc1, 0x00, 0x00, 0x00, 0x00, 0x00, 0x00, 0xc9, 0x00,
  0xbf, 0xbf, 0xcb, 0x33, 0x00, 0x39, 0x00, 0x00, 0x39, 0x00, 0x00, 0x00,
  0x00, 0x00, 0x00, 0x00, 0x00, 0x00, 0x00, 0x00, 0x36, 0x00, 0x00, 0x00,
  0x00, 0x00, 0x00, 0x00, 0x00, 0x00, 0x00, 0x00, 0x00, 0x00, 0x33, 0x35,
  0x00, 0x00, 0x00, 0x00, 0x00, 0x00, 0x00, 0x00, 0x00, 0x00, 0x00, 0x00,
  0x00, 0x00, 0x00, 0xce, 0x00, 0x00, 0x00, 0x00, 0x00, 0x4d, 0x00, 0x56,
  0x00, 0x00, 0x00, 0x00, 0x00, 0x00, 0x00, 0x00, 0x00, 0x00, 0x00, 0x53,
  0x00, 0x00, 0x00, 0x00, 0x00, 0x00, 0x00, 0x00, 0x00, 0x00, 0x00, 0x00,
  0x3a, 0x00, 0x42, 0x00, 0x00, 0x00, 0x00, 0x00, 0x00, 0xc3, 0x52, 0x00,
  0x00, 0x00, 0xca, 0x00, 0xc6, 0x00, 0x00, 0x00, 0x00, 0xc7, 0x00, 0x00,
  0x00, 0xcb, 0x00, 0x00, 0x00, 0x00, 0x00, 0x00, 0x00, 0x00, 0x00, 0x37,
  0x00, 0x00, 0x00, 0x00, 0xcc, 0x45, 0x00, 0x00, 0x2f, 0xaf, 0x00, 0x00,
  0x00, 0x00, 0x00, 0xcd, 0x00, 0x00, 0x00, 0x00, 0x3b, 0xb1, 0x00, 0x00,
  0x00, 0x00, 0xc9, 0x00, 0x00, 0x36, 0x00, 0x00, 0x00, 0x00, 0x00, 0x00,
  0x6d, 0x00, 0x00, 0x00, 0x00, 0x00, 0x00, 0x43, 0x35, 0x00, 0x00, 0x00,
  0x4e, 0x00, 0x00, 0x00, 0x00, 0x00, 0x00, 0x00, 0x00, 0x7f, 0x00, 0x00,
  0x58, 0x00, 0x47, 0x4f, 0xc7, 0x00, 0x00, 0x00, 0x00, 0xae, 0x00, 0x00,
  0x40, 0x00, 0x35, 0x00, 0x00, 0x00, 0x00, 0xcc, 0x00, 0xcf, 0xcc, 0x00,
  0x00, 0x00, 0x00, 0x00, 0x00, 0x00, 0x00, 0x00, 0x00, 0x00, 0x36, 0x00,
  0x45, 0x00, 0x00, 0x00, 0x00, 0x00, 0xc4, 0x00, 0x00, 0x4e, 0x44, 0x00,
  0x00, 0x00, 0x00, 0x00, 0x00, 0x00, 0x00, 0x00, 0x00, 0x00, 0x00, 0x00,
  0x00, 0x00, 0x00, 0x00, 0x00, 0xc4, 0x00, 0x34, 0x00, 0x00, 0x30, 0xc7,
  0x00, 0x00, 0x00, 0xca, 0x00, 0x3b, 0x00, 0x00, 0x00, 0x00, 0x00, 0x00,
  0x51, 0x00, 0x00, 0x4f, 0x00, 0x00, 0x00, 0x00, 0x00, 0x00, 0x00, 0x00,
  0x00, 0x47, 0x00, 0x00, 0x65, 0x00, 0x54, 0x00, 0x00, 0xc7, 0x00, 0x00,
  0x3b, 0x00, 0xc4, 0x00, 0x34, 0x00, 0x38, 0x00, 0x00, 0x00, 0x4c, 0x00,
  0x00, 0x00, 0x00, 0x00, 0x00, 0x00, 0xc3, 0x00, 0x00, 0x00, 0x00, 0x00,
  0x52, 0x00, 0xca, 0x00, 0x00, 0x00, 0xcb, 0x00, 0xc2, 0x45, 0x00, 0x00,
  0x00, 0x00, 0x00, 0x00, 0x00, 0xb8, 0x00, 0x00, 0xc7, 0x00, 0xc9, 0x00,
  0x00, 0x00, 0x00, 0x00, 0x47, 0x60, 0x33, 0x00, 0x38, 0x00, 0x38, 0x00,
  0x00, 0x00, 0x00, 0x00, 0x00, 0x3a, 0x00, 0xc9, 0x46, 0xb8, 0x00, 0xcb,
  0x00, 0x34, 0x00, 0xd0, 0x00, 0x36, 0x00, 0x00, 0x00, 0x00, 0x00, 0x00,
  0x00, 0xbf, 0x00, 0x00, 0x00, 0x00, 0x00, 0x00, 0x00, 0x00, 0x00, 0xcd,
  0x00, 0x36, 0x00, 0x00, 0x00, 0x00, 0x00, 0x00, 0x3d, 0x3e, 0x00, 0x00,
  0x00, 0x00, 0x42, 0x2e, 0x33, 0x00, 0x00, 0x00, 0x00, 0x00, 0x00, 0xcb,
  0x32, 0x00, 0x40, 0x42, 0x37, 0xcf, 0xc3, 0x00, 0x00, 0x00, 0xc6, 0x00,
  0x00, 0x00, 0xcf, 0x00, 0x00, 0x00, 0x00, 0x00, 0x00, 0x00, 0x00, 0x00,
  0x5a, 0x4d, 0x63, 0x00, 0x00, 0x49, 0x48, 0xbc, 0x00, 0x00, 0x00, 0x00,
  0x00, 0x33, 0x00, 0x00, 0x00, 0x00, 0x00, 0x00, 0x00, 0x00, 0x00, 0x55,
  0x00, 0x00, 0x00, 0x00, 0xc8, 0x00, 0x00, 0x00, 0x36, 0x00, 0x00, 0x00,
  0x00, 0x00, 0x00, 0x00, 0xcd, 0x00, 0x00, 0x00, 0x00, 0x00, 0x00, 0x00,
  0x00, 0xcc, 0xca, 0x00, 0x00, 0x36, 0x00, 0x00, 0x00, 0x00, 0x00, 0x4e,
  0x00, 0x33, 0x00, 0x00, 0x00, 0xc2, 0x00, 0x00, 0x00, 0x00, 0x00, 0x00,
  0x00, 0xc9, 0x00, 0xd0, 0x00, 0x00, 0xc3, 0x31, 0x00, 0x00, 0x00, 0x36,
  0x00, 0x00, 0x00, 0x3b, 0x00, 0x00, 0x00, 0xbf, 0x00, 0x31, 0x00, 0xc4,
  0x35, 0xcf, 0x00, 0x2f, 0x00, 0x00, 0x00, 0x00, 0x00, 0x00, 0x00, 0x00,
  0x39, 0x00, 0x00, 0x30, 0xc5, 0x00, 0x37, 0x00, 0x00, 0x38, 0x00, 0x00,
  0x46, 0x30, 0x00, 0x00, 0x3d, 0x00, 0x00, 0x00, 0x00, 0x00, 0x00, 0xcf,
  0xc2, 0x00, 0xcb, 0x00, 0xb5, 0x00, 0xc7, 0xcc, 0xce, 0x00, 0x30, 0xb5,
  0xc8, 0x00, 0x00, 0x34, 0x00, 0x00, 0x00, 0x41, 0x00, 0x00, 0xc2, 0x00,
  0x00, 0x00, 0x00, 0x36, 0x00, 0x00, 0x00, 0x00, 0x00, 0x00, 0x00, 0x00,
  0x00, 0x00, 0x38, 0x32, 0x00, 0x00, 0xc4, 0x00, 0x00, 0xc7, 0x00, 0x00,
  0x00, 0x00, 0x00, 0x30, 0x37, 0x35, 0xcb, 0x00, 0x33, 0x35, 0x00, 0xc6,
  0x00, 0xbc, 0xcb, 0x00, 0x3c, 0x00, 0x00, 0xbc, 0x00, 0xc3, 0xc9, 0x00,
  0x00, 0x42, 0x48, 0x00, 0x00, 0x00, 0x3b, 0xbf, 0xc9, 0x00, 0xd1, 0x3c,
  0x00, 0xca, 0x00, 0xbe, 0x00, 0x00, 0x00, 0x00, 0xc3, 0x00, 0x00, 0x00,
  0xce, 0x00, 0x00, 0x3e, 0x00, 0x00, 0x00, 0xc0, 0x00, 0x00, 0x00, 0x43,
  0x00, 0x00, 0x00, 0x00, 0x00, 0x00, 0x34, 0x00, 0x00, 0x00, 0xcf, 0x00,
  0x00, 0x00, 0x33, 0x49, 0x31, 0x00, 0x00, 0x2e, 0x00, 0x00, 0xcf, 0x00,
  0x00, 0x00, 0x00, 0x00, 0xbf, 0x39, 0xce, 0xc6, 0x00, 0x00, 0x00, 0x40,
  0x00, 0x33, 0x00, 0xce, 0xcd, 0x00, 0x00, 0xcd, 0x00, 0x00, 0x31, 0x00,
  0xcc, 0x3e, 0x00, 0x00, 0x00, 0x00, 0x00, 0x00, 0x00, 0x00, 0x00, 0x00,
  0x35, 0x00, 0x00, 0x00, 0x00, 0x00, 0x00, 0x00, 0x00, 0xcd, 0x00, 0x00,
  0x3a, 0x00, 0xc4, 0x35, 0x3a, 0xca, 0x00, 0x00, 0x00, 0x32, 0x00, 0x00,
  0x00, 0x44, 0x00, 0x00, 0x32, 0x00, 0x31, 0x00, 0x00, 0x00, 0x00, 0xce,
  0x00, 0x32, 0x00, 0xd1, 0xc9, 0x00, 0x4c, 0x42, 0x00, 0x34, 0x00, 0x49,
  0x46, 0x00, 0x00, 0x00, 0xd0, 0x43, 0xc9, 0x35, 0x00, 0x00, 0x00, 0x00,
  0x00, 0x00, 0x00, 0x00, 0xd1, 0x00, 0x00, 0x00, 0xb8, 0x00, 0x4a, 0xd0,
  0x00, 0x00, 0x00, 0x00, 0x00, 0x00, 0x00, 0x00, 0x00, 0x00, 0xbf, 0x00,
  0x00, 0x4a, 0x00, 0x00, 0x00, 0x00, 0x00, 0x00, 0x48, 0x00, 0x00, 0x00,
  0x00, 0xc4, 0x00, 0x00, 0x00, 0x00, 0x00, 0x30, 0x00, 0x00, 0xbf, 0x00,
  0x00, 0x00, 0xcc, 0x00, 0x00, 0x00, 0x00, 0x00, 0x00, 0x00, 0x00, 0x00,
  0x00, 0xc4, 0x00, 0x00, 0x00, 0x00, 0xbb, 0x00, 0x33, 0x00, 0x00, 0x68,
  0x00, 0x00, 0x00, 0x00, 0x00, 0x00, 0x00, 0x00, 0x00, 0x00, 0x00, 0x00,
  0x00, 0x00, 0x00, 0x00, 0x00, 0x00, 0x00, 0x4d, 0x62, 0x00, 0x00, 0x66,
  0x53, 0x00, 0x37, 0x00, 0x00, 0x32, 0x00, 0x00, 0x00, 0xc8, 0x00, 0x00,
  0x00, 0x53, 0x00, 0xb9, 0x00, 0x00, 0x00, 0x00, 0x00, 0xc2, 0xc7, 0x00,
  0x00, 0x00, 0x00, 0x00, 0x00, 0x00, 0x00, 0x00, 0x00, 0x47, 0x4a, 0x00,
  0x00, 0x00, 0x00, 0x00, 0x00, 0x00, 0x00, 0x00, 0x00, 0xc6, 0x00, 0x47,
  0x00, 0x00, 0x00, 0x00, 0x00, 0x6a, 0x00, 0x00, 0xd0, 0x00, 0x00, 0x30,
  0x3a, 0x00, 0x00, 0x00, 0xcd, 0x00, 0x00, 0x00, 0x00, 0x49, 0x00, 0x41,
  0x00, 0x00, 0x00, 0x3f, 0x00, 0x37, 0x40, 0x00, 0x00, 0x00, 0x00, 0x3e,
  0x00, 0x40, 0x00, 0x00, 0x3d, 0xcc, 0x00, 0x00, 0x49, 0x00, 0x3b, 0xcf,
  0xc5, 0x00, 0x00, 0x00, 0xcb, 0x00, 0x40, 0x00, 0xd0, 0x00, 0x3c, 0x00,
  0x00, 0x00, 0x00, 0x00, 0x00, 0xbf, 0x00, 0x00, 0x00, 0x00, 0xbb, 0x00,
  0x00, 0x00, 0x00, 0x00, 0x00, 0x00, 0x49, 0x00, 0x00, 0x00, 0xd0, 0xc4,
  0x35, 0x00, 0x00, 0x00, 0x00, 0x35, 0x00, 0x00, 0x00, 0x4a, 0x59, 0x00,
  0x45, 0x00, 0x45, 0x31, 0x00, 0x57, 0x00, 0x00, 0x32, 0x00, 0x00, 0x00,
  0x00, 0x00, 0x00, 0xcd, 0x43, 0x00, 0x00, 0x00, 0x00, 0x00, 0x00, 0x4a,
  0x00, 0x00, 0x00, 0xc7, 0x00, 0x00, 0x4a, 0xbe, 0x00, 0x00, 0x00, 0x00,
  0xce, 0x00, 0x3a, 0x5b, 0x00, 0x00, 0x00, 0x00, 0x00, 0xc6, 0x00, 0x00,
  0x00, 0x00, 0x00, 0x00, 0x00, 0x32, 0x46, 0xc2, 0x6c, 0x00, 0x00, 0x00,
  0x57, 0xc7, 0x00, 0x00, 0x00, 0x00, 0x43, 0x00, 0x00, 0x00, 0x40, 0x42,
  0x50, 0x00, 0x00, 0x00, 0x62, 0x00, 0x00, 0xc0, 0x00, 0x00, 0x00, 0x00,
  0x00, 0x00, 0x33, 0x00, 0xcc, 0x00, 0x00, 0x61, 0x45, 0x4f, 0x54, 0x00,
  0xbf, 0x00, 0x64, 0x00, 0x00, 0x00, 0x00, 0xce, 0xc2, 0x00, 0xba, 0x00,
  0x00, 0x00, 0x00, 0x00, 0x00, 0x00, 0x5c, 0x43, 0x00, 0x00, 0x00, 0x00,
  0xb2, 0x00, 0x00, 0x00, 0x00, 0x2f, 0x00, 0x00, 0x43, 0x37, 0x00, 0x00,
  0x57, 0x00, 0x00, 0x00, 0x00, 0x00, 0x00, 0x00, 0x47, 0x00, 0x00, 0x00,
  0x00, 0x00, 0xcb, 0x00, 0x5a, 0x00, 0x00, 0x00, 0x00, 0x34, 0x00, 0x00,
  0x46, 0x00, 0x00, 0x00, 0x00, 0x00, 0x00, 0x00, 0x00, 0x00, 0x52, 0x00,
  0x00, 0x5a, 0x39, 0x39, 0x00, 0x00, 0x36, 0x00, 0x4c, 0x00, 0xbd, 0x00,
  0x00, 0xce, 0x00, 0x44, 0x00, 0xd1, 0x00, 0x59, 0x35, 0x00, 0x00, 0x00,
  0x00, 0x00, 0x00, 0xc5, 0xd1, 0xb7, 0x00, 0x00, 0xd1, 0xca, 0x00, 0x00,
  0x00, 0x00, 0x00, 0x00, 0x00, 0x50, 0x00, 0x00, 0xce, 0x00, 0x00, 0x00,
  0x00, 0x00, 0x00, 0x31, 0x00, 0x00, 0xc2, 0x00, 0x00, 0x00, 0xc6, 0x00,
  0x00, 0x00, 0x00, 0xc6, 0x00, 0xcb, 0x00, 0x49, 0x00, 0x00, 0x00, 0xc9,
  0x00, 0x00, 0xc4, 0x00, 0x00, 0x00, 0x00, 0x00, 0x00, 0x00, 0x00, 0x00,
  0x57, 0x00, 0x00, 0xb7, 0x00, 0x00, 0x00, 0x00, 0x00, 0x00, 0x00, 0x00,
  0x00, 0x00, 0x3f, 0x00, 0x00, 0xcb, 0x00, 0x00, 0x50, 0x00, 0x00, 0x00,
  0x00, 0xc3, 0x57, 0x00, 0x55, 0x00, 0x00, 0x30, 0x00, 0x00, 0x00, 0x00,
  0x00, 0x00, 0x00, 0xcc, 0x00, 0x00, 0xcf, 0x00, 0x00, 0xb8, 0xb6, 0x00,
  0x00, 0x00, 0x00, 0x31, 0x52, 0xa0, 0xc7, 0x00, 0x00, 0x00, 0x35, 0x00,
  0x00, 0x00, 0x00, 0x30, 0x00, 0x00, 0xb6, 0x00, 0x00, 0x00, 0x4a, 0x00,
  0x00, 0x00, 0x00, 0x00, 0x00, 0x3c, 0x00, 0x00, 0x00, 0x32, 0x4b, 0x00,
  0x00, 0x00, 0x50, 0x00, 0x00, 0x00, 0x00, 0x00, 0x44, 0x67, 0x00, 0x49,
  0x00, 0x3e, 0x00, 0x4a, 0x3c, 0x00, 0x3a, 0x00, 0x00, 0x00, 0x00, 0x00,
  0x00, 0x44, 0x00, 0x00, 0x00, 0x00, 0x00, 0x44, 0x00, 0x34, 0x00, 0x00,
  0xc3, 0x00, 0x00, 0x00, 0x00, 0x00, 0x32, 0x00, 0x00, 0x00, 0x00, 0x00,
  0x00, 0x00, 0x00, 0x00, 0x00, 0x00, 0x00, 0x00, 0x00, 0x00, 0xb6, 0x00,
  0x00, 0x00, 0x00, 0x00, 0x00, 0x00, 0x53, 0x55, 0x00, 0x00, 0x00, 0x00,
  0x38, 0x00, 0x38, 0x00, 0x00, 0x00, 0xc4, 0x00, 0x30, 0x5d, 0x00, 0x00,
  0x75, 0x00, 0x00, 0x00, 0xd1, 0x00, 0x00, 0x00, 0x00, 0x00, 0x00, 0x96,
  0xb2, 0x00, 0x00, 0x00, 0x00, 0x00, 0x00, 0x00, 0x00, 0x00, 0x00, 0x00,
  0x00, 0x00, 0x35, 0x00, 0xc1, 0x00, 0x00, 0x00, 0x00, 0x00, 0xc8, 0x00,
  0x00, 0xd1, 0x37, 0xc1, 0x00, 0x00, 0x00, 0x00, 0x30, 0x3e, 0x00, 0x30,
  0xc2, 0x00, 0x00, 0x33, 0x00, 0xbf, 0xc9, 0x00, 0x00, 0xcf, 0x00, 0x00,
  0xc3, 0x00, 0x00, 0x00, 0x30, 0x00, 0x00, 0x00, 0x32, 0x00, 0x00, 0x00,
  0x00, 0x3f, 0x00, 0x00, 0xbe, 0x00, 0x00, 0x00, 0x3b, 0x00, 0x00, 0x00,
  0x00, 0x00, 0x00, 0x00, 0x00, 0x00, 0xb6, 0x00, 0x00, 0x00, 0x00, 0xc3,
  0x00, 0x00, 0x00, 0x00, 0xbe, 0x30, 0x00, 0x00, 0x38, 0x00, 0x00, 0x00,
  0xc8, 0x00, 0x00, 0x00, 0x00, 0x36, 0x00, 0x00, 0xd1, 0x00, 0x00, 0x00,
  0x00, 0x00, 0x00, 0xba, 0x00, 0x00, 0x00, 0x00, 0x00, 0x00, 0x00, 0x00,
  0x00, 0x00, 0x00, 0x00, 0x00, 0x00, 0x00, 0x00, 0x00, 0x00, 0x00, 0x00,
  0xc4, 0x00, 0x00, 0x00, 0x00, 0x00, 0x00, 0x35, 0x37, 0x00, 0x38, 0xb8,
  0xc9, 0xcc, 0x00, 0x00, 0x00, 0x00, 0x00, 0x00, 0x00, 0x50, 0x00, 0x46,
  0x00, 0x00, 0xd0, 0xca, 0xc3, 0x00, 0xcb, 0x00, 0x42, 0xd1, 0x00, 0xcf,
  0x00, 0x3c, 0x00, 0xcb, 0xcc, 0x31, 0x00, 0x00, 0x00, 0x00, 0x00, 0x00,
  0x00, 0x00, 0x3f, 0x00, 0x40, 0x00, 0x4d, 0x00, 0x39, 0x00, 0x00, 0x00,
  0x00, 0x00, 0x33, 0x00, 0x00, 0x00, 0x34, 0x31, 0x00, 0x00, 0x00, 0x00,
  0x00, 0x43, 0x00, 0x3d, 0x00, 0xbe, 0x00, 0xc9, 0x00, 0x00, 0x00, 0x00,
  0x00, 0x00, 0xd0, 0x00, 0x00, 0x37, 0x00, 0x00, 0x00, 0x00, 0xcb, 0x00,
  0x00, 0x00, 0x00, 0x00, 0xca, 0xc2, 0x00, 0x00, 0x36, 0x00, 0x3c, 0x00,
  0x00, 0x00, 0x00, 0x00, 0x00, 0x00, 0x00, 0x00, 0xc7, 0x00, 0x00, 0x00,
  0x00, 0x00, 0x00, 0x00, 0x00, 0x00, 0x00, 0x00, 0xbc, 0x00, 0x00, 0x00,
  0x00, 0x00, 0x00, 0x00, 0xbd, 0x00, 0x00, 0xcf, 0xc6, 0xbf, 0x00, 0x00,
  0x00, 0x00, 0x00, 0x00, 0x00, 0xc2, 0xbc, 0x00, 0x00, 0x34, 0x3d, 0x32,
  0xbd, 0xcb, 0x00, 0x42, 0xbf, 0x00, 0x00, 0x00, 0x00, 0x00, 0x00, 0x00,
  0x00, 0x00, 0xcb, 0x00, 0x49, 0x00, 0x52, 0x4a, 0x00, 0x3f, 0x00, 0x00,
  0x00, 0x00, 0x00, 0xc7, 0x00, 0x00, 0x00, 0xbb, 0x00, 0x00, 0x00, 0x00,
  0xcd, 0x00, 0x00, 0x00, 0x00, 0x00, 0x3e, 0xcc, 0x00, 0x00, 0x00, 0x00,
  0x00, 0x00, 0x00, 0x44, 0x00, 0x00, 0x00, 0x39, 0x00, 0x41, 0x5f, 0x00,
  0x00, 0x00, 0x00, 0x00, 0x00, 0xca, 0x00, 0x00, 0x00, 0x00, 0xc6, 0x00,
  0x00, 0x00, 0xd0, 0x00, 0x00, 0x00, 0x00, 0x00, 0x00, 0x00, 0x00, 0x00,
  0x00, 0x00, 0x00, 0xbe, 0x00, 0xb1, 0x00, 0x00, 0x00, 0x00, 0x00, 0x42,
  0x00, 0x00, 0x00, 0x00, 0x42, 0x00, 0x37, 0x53, 0x00, 0x43, 0x48, 0x00,
  0x00, 0x00, 0x00, 0x00, 0x30, 0x00, 0x00, 0x00, 0x00, 0xc6, 0x00, 0x00,
  0x00, 0x00, 0x00, 0x00, 0x4c, 0x00, 0x00, 0x00, 0x49, 0x00, 0x00, 0x00,
  0xbf, 0x00, 0x00, 0x00, 0x00, 0x36, 0x4a, 0x3e, 0x00, 0x00, 0x3d, 0x00,
  0x00, 0x32, 0xd2, 0x00, 0xbf, 0xcf, 0x00, 0x00, 0x00, 0xc4, 0x00, 0x00,
  0x00, 0xc7, 0x33, 0x00, 0x00, 0x00, 0x4a, 0x00, 0x00, 0x00, 0x00, 0x00,
  0x00, 0x00, 0xc9, 0x00, 0x00, 0x00, 0x31, 0x3a, 0x00, 0x00, 0xb8, 0x39,
  0x00, 0x00, 0x00, 0x3f, 0x49, 0x00, 0x00, 0x00, 0x33, 0x00, 0x00, 0x00,
  0x00, 0x00, 0x00, 0x00, 0x00, 0x00, 0x00, 0x00, 0x00, 0x3a, 0x00, 0x00,
  0x00, 0x00, 0x00, 0x4c, 0x00, 0x00, 0x00, 0x00, 0x00, 0x40, 0x00, 0x00,
  0x3d, 0xc2, 0x00, 0x00, 0x00, 0x34, 0x00, 0x00, 0x00, 0x00, 0x00, 0x00,
  0x00, 0x00, 0x3a, 0x00, 0x00, 0x00, 0x00, 0x00, 0x00, 0x00, 0x00, 0xca,
  0x00, 0xc4, 0x00, 0x39, 0x00, 0x00, 0x00, 0x00, 0x00, 0x00, 0xc6, 0x00,
  0x40, 0x41, 0x00, 0x50, 0x00, 0x41, 0x00, 0x00, 0x4b, 0x00, 0x00, 0x00,
  0x4c, 0xc5, 0xc2, 0x00, 0x00, 0x47, 0xbe, 0x00, 0xce, 0x00, 0x00, 0x00,
  0x00, 0x00, 0x38, 0xc3, 0x00, 0x00, 0x00, 0x00, 0x3a, 0x3b, 0x00, 0xc0,
  0x00, 0x00, 0x00, 0x00, 0x00, 0x00, 0x00, 0x00, 0x00, 0x00, 0x00, 0x3e,
  0x00, 0x3f, 0x00, 0xd0, 0x00, 0x00, 0x00, 0x00, 0x41, 0x00, 0xbd, 0x4c,
  0x00, 0x38, 0x00, 0x42, 0x00, 0x00, 0x00, 0x3e, 0x00, 0x4a, 0x00, 0x00,
  0x00, 0x00, 0x00, 0x00, 0x00, 0x00, 0x00, 0x4e, 0x00, 0x00, 0x00, 0x00,
  0x00, 0x00, 0x00, 0x00, 0x00, 0x00, 0x00, 0x00, 0x00, 0x00, 0x00, 0x00,
  0x00, 0x00, 0x00, 0xbc, 0x00, 0x4a, 0x00, 0x33, 0x00, 0x00, 0x00, 0xbf,
  0x60, 0x00, 0xcb, 0x00, 0x00, 0x00, 0x00, 0x00, 0x00, 0x00, 0x00, 0x00,
  0xbe, 0x00, 0x00, 0xce, 0x39, 0x00, 0x00, 0x00, 0x00, 0xc1, 0x00, 0x00,
  0x00, 0x00, 0x00, 0x00, 0x00, 0x4b, 0x00, 0xb8, 0x00, 0x00, 0xca, 0x00,
  0x00, 0x00, 0xce, 0x00, 0x00, 0x38, 0x00, 0x00, 0x00, 0x00, 0x42, 0x00,
  0x00, 0x00, 0x00, 0x00, 0x00, 0x30, 0x5a, 0x3c, 0x30, 0x00, 0x41, 0x00,
  0x00, 0x00, 0x3c, 0x00, 0x63, 0x00, 0x00, 0x00, 0x4a, 0x00, 0x00, 0x00,
  0x30, 0x00, 0x00, 0x00, 0x33, 0x00, 0x00, 0x00, 0x00, 0xc1, 0x00, 0x38,
  0x00, 0x00, 0x00, 0x00, 0x00, 0xc6, 0x00, 0x00, 0x00, 0x00, 0x00, 0x00,
  0x00, 0x00, 0x00, 0x00, 0x00, 0x00, 0x00, 0x34, 0x00, 0x00, 0x00, 0xcc,
  0x64, 0x5f, 0x00, 0x00, 0x00, 0x00, 0x00, 0x00, 0x00, 0x00, 0xb8, 0x5a,
  0xc5, 0xb4, 0x00, 0x00, 0x00, 0x00, 0x00, 0x00, 0x00, 0x00, 0x00, 0x00,
  0x00, 0x00, 0x00, 0x00, 0x00, 0xcd, 0x00, 0x00, 0x3e, 0x00, 0x00, 0x00,
  0x00, 0x00, 0xc8, 0x00, 0x00, 0xcd, 0xb7, 0x00, 0x00, 0x00, 0x00, 0x00,
  0x00, 0x00, 0x55, 0x00, 0x00, 0x00, 0x00, 0x57, 0x00, 0x00, 0x00, 0x00,
  0x00, 0x00, 0x43, 0x00, 0x00, 0x00, 0xcc, 0x57, 0x00, 0xc7, 0x00, 0x00,
  0x00, 0x00, 0x00, 0xd1, 0x00, 0xd1, 0x00, 0xcb, 0x00, 0x00, 0x00, 0x00,
  0x00, 0xc2, 0x00, 0x00, 0x00, 0x00, 0xd0, 0xd1, 0x00, 0xcc, 0x00, 0x00,
  0x39, 0x3c, 0x00, 0x00, 0xcd, 0xc2, 0x00, 0x3a, 0x00, 0x00, 0x00, 0x00,
  0x00, 0x00, 0x00, 0x00, 0x00, 0x00, 0x00, 0x00, 0x00, 0x00, 0x00, 0x00,
  0x00, 0x00, 0x00, 0x2f, 0xca, 0x00, 0x00, 0xcc, 0x00, 0x00, 0x00, 0x00,
  0x00, 0x00, 0x00, 0x00, 0x00, 0x00, 0x00, 0x00, 0xcb, 0x00, 0xbd, 0x00,
  0x00, 0x00, 0xbe, 0x00, 0xcb, 0x00, 0x00, 0x00, 0x00, 0x00, 0x00, 0x00,
  0x00, 0x00, 0x00, 0x00, 0x00, 0x00, 0x4e, 0x00, 0x00, 0x00, 0x00, 0x00,
  0x3c, 0x00, 0x00, 0x49, 0x00, 0xca, 0x00, 0x00, 0x3b, 0x00, 0x00, 0x44,
  0x4f, 0x00, 0x3e, 0x00, 0x00, 0x37, 0x00, 0x00, 0x00, 0x00, 0x00, 0xd1,
  0x43, 0x00, 0xc3, 0x00, 0x00, 0x00, 0xc3, 0x00, 0x00, 0x00, 0x00, 0xc1,
  0x37, 0x3e, 0x3b, 0x00, 0x00, 0xbe, 0x00, 0x00, 0x00, 0x00, 0x00, 0x00,
  0x3d, 0x00, 0x00, 0x00, 0x34, 0x00, 0x00, 0x00, 0xc6, 0x00, 0x00, 0x00,
  0xc1, 0x38, 0x00, 0x00, 0x00, 0xce, 0x00, 0x00, 0x00, 0x00, 0xc2, 0xbb,
  0xc7, 0x00, 0x00, 0x00, 0xc7, 0x00, 0xc4, 0x00, 0x00, 0x00, 0x00, 0x00,
  0x2f, 0x00, 0x00, 0x00, 0xce, 0xce, 0x00, 0x00, 0x00, 0x00, 0x00, 0x00,
  0xba, 0x00, 0x00, 0x00, 0x00, 0x00, 0x00, 0x32, 0x00, 0x00, 0x00, 0x00,
  0x00, 0x37, 0xc9, 0x00, 0xcc, 0xba, 0x00, 0x00, 0x00, 0x00, 0x00, 0xc1,
  0x00, 0xc2, 0x00, 0x00, 0x00, 0x00, 0x00, 0x00, 0x00, 0xcc, 0x00, 0x00,
  0x00, 0x34, 0x00, 0x00, 0x00, 0x00, 0x00, 0x00, 0xcd, 0x00, 0x00, 0x00,
  0x00, 0x00, 0xcb, 0xd0, 0xcc, 0x00, 0x00, 0x00, 0x00, 0x00, 0x00, 0x00,
  0xd1, 0x00, 0xd1, 0x00, 0xd0, 0x00, 0xc2, 0xc2, 0x33, 0x2f, 0x00, 0x00,
  0x4a, 0x00, 0xc9, 0x00, 0x53, 0x00, 0x00, 0x00, 0x00, 0x00, 0xd1, 0x00,
  0x00, 0x39, 0x00, 0x00, 0x3b, 0x00, 0x00, 0x00, 0x3d, 0x00, 0x00, 0x51,
  0x3d, 0x00, 0x00, 0x44, 0x00, 0x00, 0xc7, 0x35, 0x00, 0x00, 0x36, 0x00,
  0x00, 0x00, 0x00, 0x00, 0x00, 0x00, 0x41, 0xc7, 0x00, 0x00, 0x00, 0x00,
  0x33, 0x00, 0x00, 0x00, 0x00, 0x46, 0x00, 0x00, 0x00, 0x00, 0x00, 0xca,
  0x00, 0x00, 0x00, 0x00, 0x00, 0x00, 0x00, 0x4a, 0x00, 0x3b, 0x44, 0x32,
  0xc8, 0x00, 0x00, 0x00, 0x00, 0x00, 0x00, 0x00, 0xc6, 0x00, 0x00, 0xc3,
  0x00, 0x00, 0x00, 0x00, 0x00, 0x00, 0xc8, 0x00, 0x00, 0x00, 0xcb, 0x00,
  0x00, 0x00, 0x00, 0x00, 0xcc, 0x00, 0x00, 0x00, 0x00, 0x00, 0x3d, 0x00,
  0x00, 0x00, 0x00, 0xb4, 0x47, 0x00, 0x00, 0x00, 0x00, 0x00, 0x00, 0x3c,
  0x00, 0x00, 0x00, 0x00, 0x00, 0x00, 0x00, 0x00, 0x00, 0x00, 0x00, 0xc0,
  0x00, 0x35, 0x00, 0x00, 0x00, 0x00, 0x00, 0xce, 0x00, 0x00, 0x00, 0x00,
  0x00, 0x00, 0x00, 0x44, 0x00, 0x00, 0x00, 0x00, 0x00, 0x00, 0x51, 0x00,
  0x9e, 0x3a, 0x3e, 0x00, 0x45, 0x00, 0x52, 0x00, 0x00, 0x00, 0x38, 0x00,
  0x00, 0x00, 0xd1, 0x4e, 0x33, 0x62, 0x00, 0x00, 0x00, 0x00, 0x33, 0x4a,
  0x00, 0x4b, 0x00, 0x00, 0x00, 0x00, 0x00, 0x00, 0x00, 0x00, 0x00, 0x00,
  0x00, 0x00, 0x2f, 0x00, 0x00, 0xc0, 0x00, 0x00, 0x00, 0x00, 0x00, 0x00,
  0x30, 0x00, 0x00, 0x00, 0x00, 0x00, 0x00, 0x00, 0x00, 0x33, 0x00, 0x00,
  0x3d, 0x00, 0xcc, 0x00, 0xc7, 0xbc, 0xcb, 0x00, 0x00, 0xc9, 0xc2, 0x00,
  0x00, 0x00, 0x00, 0xcb, 0x00, 0x00, 0xbb, 0x35, 0x00, 0x00, 0x00, 0x00,
  0x00, 0xcb, 0x00, 0x00, 0xc2, 0x00, 0x00, 0x00, 0x00, 0x00, 0xcf, 0x00,
  0xd2, 0x00, 0x34, 0x00, 0xd1, 0x00, 0x30, 0x00, 0xc6, 0x00, 0x4e, 0x00,
  0x00, 0x48, 0x00, 0x00, 0x00, 0x00, 0x00, 0x00, 0x00, 0x00, 0x00, 0x00,
  0x00, 0x00, 0x00, 0xc6, 0x00, 0x00, 0x00, 0x00, 0x00, 0x00, 0x00, 0x00,
  0x40, 0x3f, 0x00, 0x3a, 0x00, 0x00, 0x00, 0x00, 0x00, 0x4f, 0x00, 0x00,
  0x00, 0xcb, 0x00, 0x00, 0x6b, 0x00, 0x00, 0xc9, 0xcb, 0x00, 0x3e, 0x00,
  0x00, 0x00, 0x00, 0x00, 0x00, 0xc6, 0x00, 0x00, 0x00, 0x5d, 0x00, 0x00,
  0x00, 0x00, 0x00, 0x00, 0x3b, 0x00, 0x00, 0x00, 0x00, 0x00, 0x00, 0xb0,
  0x00, 0x00, 0x00, 0x00, 0x00, 0x00, 0x00, 0xc2, 0x00, 0x00, 0xc7, 0x00,
  0xc3, 0xc9, 0x49, 0x00, 0xcd, 0x00, 0x00, 0x00, 0x00, 0x00, 0x00, 0xc2,
  0xbd, 0x00, 0x32, 0x00, 0xc4, 0x00, 0x00, 0x00, 0x00, 0x00, 0x00, 0x00,
  0x00, 0x00, 0x00, 0x00, 0x00, 0x3c, 0xc4, 0x00, 0x00, 0x00, 0x00, 0x00,
  0xc2, 0x00, 0x35, 0x00, 0x00, 0xc7, 0xc2, 0x00, 0x00, 0x00, 0x00, 0x00,
  0x38, 0x00, 0x00, 0x00, 0x00, 0xce, 0x00, 0x00, 0x00, 0x00, 0x44, 0x39,
  0x00, 0x31, 0xc6, 0x00, 0x00, 0xc1, 0xc8, 0x00, 0x2f, 0x00, 0x00, 0x00,
  0x00, 0x00, 0x00, 0xbb, 0x00, 0x00, 0x3c, 0x00, 0x00, 0x00, 0x00, 0xd1,
  0xcd, 0x00, 0xbf, 0x00, 0x00, 0x00, 0x00, 0x00, 0x00, 0x00, 0x00, 0x38,
  0x00, 0x00, 0x00, 0x00, 0xbe, 0x00, 0x00, 0x00, 0xbf, 0x00, 0x00, 0x3e,
  0x00, 0xc1, 0x00, 0x00, 0x00, 0x00, 0xcf, 0xcc, 0x00, 0xc2, 0x00, 0x30,
  0x33, 0x00, 0x00, 0xb9, 0x00, 0x00, 0x00, 0x00, 0x3c, 0x00, 0xcc, 0x00,
  0x00, 0x00, 0x00, 0xc3, 0x00, 0x00, 0x00, 0xce, 0x00, 0x00, 0x00, 0x00,
  0x00, 0x00, 0x00, 0xbf, 0x00, 0x00, 0xb9, 0x00, 0x00, 0x00, 0xbe, 0x00,
  0x00, 0x00, 0xc7, 0x00, 0x00, 0x00, 0x00, 0x00, 0xd0, 0xcf, 0x00, 0xc6,
  0x00, 0x00, 0x00, 0x00, 0x00, 0x00, 0x00, 0x00, 0x00, 0x00, 0xc3, 0x00,
  0x00, 0xc8, 0x00, 0x00, 0x00, 0x00, 0x00, 0x00, 0x00, 0x00, 0x00, 0x00,
  0x00, 0xca, 0x00, 0x00, 0x00, 0x39, 0xce, 0x00, 0x3f, 0x00, 0x00, 0x00,
  0x00, 0xca, 0x00, 0x34, 0x00, 0x00, 0x31, 0xc5, 0x00, 0x00, 0x00, 0x00,
  0x00, 0x00, 0x00, 0x00, 0x00, 0x00, 0x00, 0x00, 0x00, 0x00, 0x00, 0x3a,
  0xbe, 0xca, 0x00, 0x00, 0x00, 0x38, 0xc6, 0x00, 0x00, 0x00, 0x00, 0x00,
  0x00, 0x00, 0xc1, 0x00, 0x00, 0x00, 0x00, 0x00, 0x00, 0x00, 0xce, 0x40,
  0x3b, 0x34, 0x00, 0x00, 0x00, 0x00, 0x00, 0x00, 0x3c, 0x00, 0x00, 0x00,
  0x00, 0xc8, 0x00, 0x00, 0x00, 0x2f, 0x32, 0x3e, 0x00, 0x00, 0x3a, 0x00,
  0x00, 0x34, 0x00, 0x00, 0x00, 0x00, 0x43, 0x00, 0x00, 0xc6, 0x00, 0x00,
  0x00, 0x00, 0x00, 0x00, 0x00, 0x00, 0x00, 0x00, 0x00, 0x00, 0xca, 0x00,
  0x00, 0x00, 0x00, 0x4a, 0x00, 0x00, 0xce, 0x37, 0x00, 0x42, 0xc2, 0x00,
  0x00, 0x3d, 0x00, 0x00, 0x00, 0x00, 0x00, 0x00, 0x00, 0x00, 0x54, 0x00,
  0x34, 0xcd, 0x00, 0x00, 0x00, 0x00, 0x00, 0xc4, 0x00, 0x00, 0x00, 0x00,
  0x00, 0x00, 0x00, 0x00, 0x51, 0x00, 0x49, 0x39, 0x00, 0x00, 0x00, 0xd1,
  0x00, 0x00, 0xb2, 0x00, 0x00, 0x00, 0x00, 0x00, 0x00, 0x00, 0x00, 0x00,
  0x44, 0x00, 0x00, 0x00, 0x00, 0x31, 0x00, 0x00, 0x00, 0x00, 0x34, 0x00,
  0x00, 0x00, 0x34, 0x47, 0x00, 0x00, 0x00, 0x00, 0x00, 0x00, 0x00, 0x00,
  0x40, 0x00, 0x00, 0x00, 0x41, 0xc6, 0x00, 0x00, 0x00, 0x00, 0x60, 0x00,
  0x00, 0x69, 0x00, 0x00, 0x00, 0x00, 0xc9, 0x00, 0x40, 0x00, 0x00, 0x3b,
  0x00, 0x00, 0x00, 0x52, 0x44, 0xd1, 0x00, 0x55, 0xc5, 0x00, 0x00, 0x36,
  0x00, 0x00, 0x00, 0x00, 0x00, 0xc2, 0x00, 0x00, 0x37, 0xc3, 0x00, 0x00,
  0xc2, 0x00, 0x00, 0x00, 0x00, 0x00, 0x40, 0x00, 0x00, 0x00, 0x00, 0x39,
  0x00, 0x00, 0x00, 0x00, 0x00, 0x3c, 0x00, 0x00, 0xbc, 0x00, 0x46, 0x40,
  0x00, 0x00, 0x00, 0x4d, 0x00, 0x00, 0x52, 0x3c, 0x00, 0x00, 0x47, 0x4f,
  0x35, 0x40, 0x00, 0x00, 0x00, 0x00, 0x00, 0x40, 0x00, 0x00, 0x00, 0x00,
  0x00, 0x00, 0x00, 0x00, 0x00, 0xc7, 0x00, 0x00, 0xd1, 0x00, 0x00, 0x00,
  0x43, 0x00, 0x00, 0x00, 0x00, 0x00, 0xbb, 0x00, 0xc0, 0x00, 0x00, 0x00,
  0xc9, 0x00, 0x00, 0x00, 0x00, 0x00, 0x52, 0x00, 0x00, 0x00, 0x00, 0xce,
  0x00, 0x37, 0x00, 0x41, 0x00, 0xd2, 0x00, 0x00, 0x00, 0x00, 0x00, 0x00,
  0x60, 0x00, 0x00, 0x00, 0x00, 0x63, 0x00, 0x00, 0x00, 0x00, 0x00, 0x00,
  0x36, 0x3f, 0x00, 0xbf, 0x00, 0x48, 0x4c, 0x00, 0x40, 0x00, 0xc4, 0x55,
  0xc7, 0x00, 0x00, 0x00, 0x00, 0xc1, 0x69, 0x33, 0x00, 0x00, 0x00, 0x3d,
  0x00, 0x00, 0x00, 0x00, 0x00, 0x00, 0x00, 0xb7, 0xc6, 0xad, 0xc5, 0x00,
  0x00, 0x00, 0x00, 0x00, 0x00, 0x00, 0x00, 0x00, 0x00, 0x00, 0x3f, 0x53,
  0x00, 0x00, 0x00, 0x00, 0x00, 0x00, 0x00, 0xc3, 0x3a, 0x00, 0x00, 0x00,
  0xc4, 0x34, 0x00, 0x00, 0xbd, 0xc8, 0x00, 0x00, 0x00, 0x00, 0x00, 0x00,
  0x00, 0x00, 0x00, 0x00, 0x00, 0x36, 0x00, 0xc7, 0x00, 0xd1, 0x00, 0x00,
  0x00, 0x00, 0x00, 0x00, 0x00, 0x00, 0x00, 0x00, 0x38, 0x00, 0xcb, 0x00,
  0x00, 0x3f, 0x00, 0x00, 0x00, 0x00, 0x00, 0x00, 0x00, 0x00, 0x3f, 0x42,
  0x00, 0x00, 0x00, 0x00, 0x3c, 0x00, 0x00, 0x34, 0x00, 0x00, 0x3a, 0xc0,
  0x00, 0x39, 0x00, 0x00, 0x00, 0x00, 0x00, 0x00, 0x00, 0x00, 0x00, 0xbe,
  0x00, 0x30, 0x00, 0x00, 0x00, 0x00, 0x00, 0xcc, 0x00, 0x00, 0xb9, 0x00,
  0x00, 0x00, 0x00, 0xb9, 0x00, 0x00, 0xc8, 0x00, 0x00, 0x00, 0xc4, 0xc6,
  0xd1, 0x00, 0x00, 0x00, 0x00, 0x00, 0x00, 0xc2, 0x00, 0x00, 0x00, 0x00,
  0x00, 0x00, 0x00, 0x00, 0x3a, 0x32, 0x00, 0x00, 0x30, 0x00, 0x00, 0x34,
  0x00, 0x00, 0x00, 0x00, 0xbf, 0x00, 0x00, 0x3c, 0x00, 0x00, 0x00, 0x00,
  0x00, 0x00, 0xc7, 0xc4, 0xc9, 0x00, 0x00, 0xc9, 0x00, 0x36, 0x34, 0x3b,
  0x38, 0x00, 0x00, 0x00, 0x3b, 0x3e, 0x00, 0x00, 0x00, 0x00, 0x00, 0x00,
  0x00, 0x00, 0x43, 0x00, 0x00, 0x00, 0x00, 0x36, 0xc7, 0x35, 0x35, 0x00,
  0x00, 0x00, 0x00, 0x00, 0x00, 0xd1, 0x00, 0x00, 0x00, 0xbe, 0x00, 0x00,
  0xbf, 0x00, 0x00, 0x44, 0x00, 0x39, 0x00, 0x00, 0x00, 0x00, 0x00, 0x00,
  0x00, 0x00, 0x00, 0x00, 0x00, 0x3d, 0xcb, 0x37, 0xb4, 0x30, 0xd0, 0x00,
  0x00, 0x00, 0x00, 0x3c, 0x00, 0x00, 0x00, 0xc4, 0x00, 0x00, 0x00, 0x00,
  0x00, 0x00, 0x00, 0x00, 0x00, 0x00, 0x00, 0x00, 0x7e, 0xc6, 0xfe, 0xff,
  0x04, 0x00, 0x00, 0x00, 0x4c, 0x1d, 0x00, 0x00, 0x00, 0x00, 0x00, 0x00,
  0x49, 0x00, 0x00, 0x41, 0x00, 0xc5, 0x00, 0xc6, 0x00, 0x00, 0x00, 0xa6,
  0x00, 0x00, 0x00, 0x00, 0x00, 0x00, 0x00, 0x00, 0x51, 0xb6, 0xb3, 0x00,
  0x00, 0x00, 0x00, 0x00, 0x00, 0x00, 0x00, 0x00, 0xc6, 0x00, 0x00, 0x5d,
  0x00, 0x00, 0xbd, 0xbd, 0x00, 0x00, 0x00, 0x00, 0xbb, 0xbc, 0x00, 0x00,
  0x00, 0x00, 0xc2, 0x00, 0x3e, 0x00, 0x45, 0x00, 0x00, 0x00, 0x00, 0x4f,
  0x00, 0x00, 0xc1, 0x00, 0x00, 0x00, 0x00, 0x00, 0x3b, 0x00, 0x00, 0x00,
  0x00, 0x00, 0x00, 0x00, 0x3e, 0x00, 0x00, 0xbe, 0x00, 0x47, 0x00, 0x00,
  0x00, 0x00, 0xb9, 0x00, 0x4a, 0x00, 0x00, 0xb3, 0x00, 0x00, 0x43, 0x00,
  0x00, 0x00, 0x00, 0x00, 0x00, 0x00, 0x00, 0x00, 0x4f, 0x4f, 0x00, 0x00,
  0x00, 0x00, 0x00, 0x00, 0x00, 0x3f, 0x4c, 0x00, 0xbe, 0x00, 0x00, 0x00,
  0x3b, 0x43, 0x00, 0x00, 0x00, 0x44, 0x00, 0x00, 0x00, 0x42, 0x00, 0x00,
  0x00, 0xb3, 0x00, 0x00, 0x00, 0x00, 0x00, 0x4c, 0x3c, 0x00, 0x43, 0x00,
  0x00, 0x00, 0xb8, 0x00, 0x3d, 0x00, 0x00, 0x00, 0x00, 0x00, 0x00, 0x3c,
  0x00, 0x00, 0x00, 0x00, 0x00, 0x41, 0xc4, 0x00, 0x00, 0xbf, 0x00, 0x00,
  0x00, 0x53, 0x55, 0x00, 0x00, 0x00, 0xbf, 0xad, 0x46, 0x00, 0x4d, 0x44,
  0xc1, 0x00, 0x00, 0x00, 0x00, 0x6b, 0x00, 0x00, 0x00, 0x00, 0x00, 0xbe,
  0x00, 0xba, 0x47, 0x00, 0x3d, 0x00, 0x00, 0x00, 0x00, 0xc0, 0x00, 0x00,
  0x00, 0x00, 0x00, 0xb8, 0x00, 0x00, 0x40, 0x3c, 0x00, 0x00, 0xb2, 0xc5,
  0x00, 0xba, 0x00, 0x00, 0x4f, 0x00, 0x00, 0x00, 0x4f, 0x00, 0x00, 0x4e,
  0x00, 0x00, 0x00, 0x00, 0x00, 0xc4, 0x00, 0x00, 0x00, 0x00, 0x00, 0x00,
  0x4b, 0x00, 0x00, 0x00, 0x00, 0x00, 0x00, 0xbc, 0x00, 0x00, 0x00, 0xb5,
  0x41, 0x00, 0x00, 0x00, 0x00, 0x00, 0x00, 0x4a, 0x00, 0x00, 0x00, 0x00,
  0x00, 0x00, 0x00, 0x00, 0x00, 0xbe, 0x00, 0x00, 0x00, 0x00, 0x4d, 0x00,
  0x00, 0xbc, 0xb4, 0x00, 0x40, 0x00, 0x00, 0x00, 0x00, 0x00, 0x00, 0x49,
  0x00, 0xbb, 0xbd, 0x3f, 0x00, 0x00, 0x49, 0x45, 0x00, 0x00, 0x00, 0x00,
  0xbf, 0x45, 0x00, 0x00, 0x00, 0x00, 0xb2, 0x00, 0x00, 0x00, 0x00, 0x00,
  0xbf, 0xc5, 0x00, 0x46, 0x00, 0xc3, 0x00, 0x49, 0x00, 0x00, 0x40, 0x00,
  0x00, 0x00, 0x3d, 0x00, 0x00, 0x00, 0x00, 0x00, 0xc4, 0x00, 0x00, 0xbc,
  0x00, 0x00, 0x00, 0x00, 0x00, 0x00, 0x00, 0x00, 0x00, 0x45, 0x00, 0x00,
  0x00, 0x00, 0x00, 0x00, 0x00, 0x00, 0x00, 0x00, 0x00, 0x00, 0x00, 0x00,
  0xc3, 0x00, 0x47, 0x00, 0x00, 0x00, 0x00, 0x00, 0x3e, 0x00, 0x00, 0x00,
  0x00, 0x00, 0x00, 0x00, 0x00, 0x00, 0x44, 0x00, 0x45, 0xc0, 0xc0, 0x00,
  0xc4, 0x6c, 0x00, 0x00, 0x00, 0x00, 0x00, 0x00, 0x00, 0x00, 0x00, 0x00,
  0x44, 0x00, 0x00, 0x00, 0x00, 0x00, 0xb8, 0x00, 0x00, 0xb9, 0x00, 0x00,
  0x00, 0x39, 0x00, 0x00, 0x00, 0x00, 0xba, 0x00, 0x00, 0x00, 0x3a, 0x00,
  0x00, 0x00, 0x00, 0xb6, 0x00, 0x00, 0x00, 0x00, 0x00, 0xb5, 0x00, 0x00,
  0x00, 0x00, 0x00, 0x00, 0x00, 0x00, 0x00, 0x00, 0x00, 0x00, 0x00, 0x00,
  0x00, 0x00, 0x00, 0x00, 0x00, 0x00, 0xc4, 0x49, 0x00, 0x00, 0x00, 0x00,
  0x00, 0x41, 0x00, 0x00, 0xbd, 0xb6, 0xb2, 0x00, 0x00, 0x00, 0xbe, 0x00,
  0x00, 0x00, 0x00, 0x00, 0x00, 0x00, 0x00, 0x00, 0x00, 0x00, 0x00, 0xb2,
  0x00, 0x00, 0x00, 0x00, 0x00, 0x00, 0x65, 0x4a, 0xc4, 0x5b, 0xbd, 0x00,
  0x00, 0x00, 0x00, 0x00, 0x00, 0x00, 0x00, 0x00, 0xc3, 0x00, 0xc3, 0x44,
  0x00, 0x00, 0x00, 0x00, 0x00, 0xc3, 0x00, 0xbc, 0x3d, 0x00, 0xba, 0x00,
  0x00, 0x00, 0x00, 0x00, 0x00, 0x00, 0x00, 0x00, 0x00, 0xbe, 0x00, 0x00,
  0xb1, 0x00, 0x47, 0x49, 0x00, 0x00, 0x4b, 0x00, 0x00, 0x00, 0x00, 0x00,
  0xb8, 0x00, 0x00, 0xbb, 0x00, 0xbb, 0x00, 0x4b, 0x00, 0x00, 0x00, 0x4e,
  0xbd, 0x4b, 0x00, 0x00, 0x00, 0x00, 0x00, 0x00, 0x00, 0x46, 0x00, 0xbc,
  0x00, 0x00, 0x00, 0x00, 0x00, 0x00, 0x00, 0x4b, 0xbc, 0x00, 0x00, 0x00,
  0x00, 0xbe, 0x00, 0x00, 0x00, 0xb8, 0x47, 0x00, 0x00, 0x00, 0x00, 0x00,
  0x00, 0x00, 0x00, 0x00, 0xb4, 0x00, 0x00, 0x00, 0x00, 0x00, 0x5e, 0x00,
  0x00, 0xc7, 0x00, 0x4f, 0x00, 0x00, 0x00, 0xb4, 0x00, 0x00, 0x44, 0x00,
  0x00, 0x48, 0xc2, 0x00, 0xc2, 0x00, 0xb6, 0x00, 0x00, 0x00, 0x00, 0x00,
  0x00, 0x3f, 0xbe, 0x00, 0x00, 0x00, 0x00, 0x00, 0x00, 0xb6, 0xb8, 0x00,
  0x00, 0xc2, 0x00, 0x00, 0x00, 0x00, 0xb5, 0x00, 0x00, 0x00, 0x00, 0x00,
  0x00, 0x00, 0x00, 0xc3, 0x00, 0x00, 0x00, 0x00, 0x00, 0x00, 0x00, 0x00,
  0x00, 0xb3, 0x49, 0x00, 0x00, 0x00, 0xc2, 0x00, 0x00, 0x4c, 0x00, 0x00,
  0xc1, 0x00, 0x00, 0x00, 0x00, 0x00, 0x00, 0x00, 0xc1, 0x00, 0x00, 0x00,
  0x42, 0x00, 0x00, 0x00, 0x00, 0x42, 0x3b, 0x46, 0x00, 0x00, 0x00, 0x00,
  0x00, 0x44, 0x00, 0x00, 0x00, 0x47, 0xc5, 0x00, 0xb7, 0x00, 0x00, 0x00,
  0x00, 0x00, 0x00, 0x00, 0x00, 0x00, 0x00, 0x00, 0xb1, 0x00, 0x00, 0x00,
  0x00, 0xb9, 0x00, 0x4a, 0x00, 0xbf, 0x00, 0x00, 0xc1, 0x00, 0x00, 0x00,
  0x00, 0x00, 0x00, 0xb9, 0x00, 0x00, 0x00, 0x00, 0xc0, 0x00, 0x00, 0x00,
  0xc0, 0x00, 0x00, 0x43, 0x44, 0x00, 0x43, 0x00, 0x00, 0x00, 0x00, 0x00,
  0xbd, 0xb7, 0x00, 0x00, 0xc0, 0x00, 0x00, 0x00, 0x46, 0x00, 0x00, 0x00,
  0x00, 0x00, 0x00, 0x00, 0x00, 0x00, 0x00, 0x00, 0x49, 0x00, 0x00, 0x00,
  0xc7, 0xc2, 0xbe, 0x00, 0xbc, 0x00, 0x00, 0x00, 0x00, 0x00, 0x00, 0x00,
  0x00, 0x00, 0x3f, 0x42, 0x00, 0xbb, 0xc1, 0x00, 0xc6, 0x00, 0x00, 0x00,
  0x00, 0x00, 0x00, 0x00, 0x49, 0x00, 0x00, 0x47, 0x00, 0x00, 0xb5, 0x00,
  0x00, 0xb6, 0x00, 0x44, 0x3b, 0x00, 0x00, 0x00, 0x00, 0x00, 0x00, 0x00,
  0x00, 0x00, 0x00, 0x00, 0x00, 0xc4, 0x48, 0x00, 0x00, 0x00, 0xb1, 0x00,
  0x41, 0x00, 0x00, 0x4c, 0x4c, 0xb2, 0x00, 0x00, 0x4e, 0x00, 0x00, 0x00,
  0x42, 0x47, 0x4b, 0x00, 0x48, 0x00, 0x00, 0x41, 0x00, 0xbf, 0x4e, 0xc3,
  0x00, 0x00, 0x00, 0x00, 0x00, 0x00, 0x00, 0xbb, 0x00, 0x00, 0x00, 0x00,
  0x00, 0x00, 0x00, 0x00, 0xc4, 0x3b, 0x00, 0xc0, 0x3c, 0x00, 0x00, 0x42,
  0x00, 0x00, 0x00, 0xc5, 0x00, 0xc1, 0x00, 0xb6, 0x00, 0x4a, 0x00, 0x00,
  0x00, 0x00, 0x00, 0x00, 0x00, 0x00, 0xc2, 0x00, 0x00, 0x00, 0x00, 0x00,
  0x00, 0x00, 0x00, 0x00, 0x00, 0x00, 0xb1, 0x00, 0x00, 0x3a, 0xbe, 0x00,
  0x00, 0x00, 0x00, 0xba, 0x4a, 0x00, 0x00, 0x00, 0x45, 0x00, 0x00, 0x00,
  0xbf, 0x00, 0x00, 0x00, 0x00, 0x00, 0x00, 0x00, 0x00, 0x00, 0x46, 0xbb,
  0x00, 0x00, 0x00, 0xb0, 0x4f, 0x00, 0x48, 0x00, 0x00, 0x00, 0x00, 0xb1,
  0x00, 0x00, 0x00, 0x00, 0x00, 0x00, 0x3a, 0x00, 0x00, 0x00, 0x00, 0x00,
  0x40, 0x00, 0x00, 0xc0, 0x00, 0x40, 0x00, 0x4a, 0xc6, 0x00, 0x00, 0x00,
  0x00, 0x00, 0x00, 0x00, 0x50, 0x00, 0x00, 0xc2, 0x00, 0xb1, 0xc3, 0x00,
  0x00, 0x00, 0x00, 0xbe, 0xc1, 0x00, 0x49, 0x00, 0x48, 0x00, 0x00, 0x00,
  0x00, 0x00, 0x00, 0x3c, 0x00, 0x00, 0x00, 0x00, 0x00, 0xba, 0x00, 0xb7,
  0x3a, 0x00, 0xc1, 0xc2, 0x00, 0xc3, 0x00, 0x00, 0xc4, 0x00, 0x00, 0x00,
  0x00, 0xc7, 0x00, 0x00, 0xb5, 0xb3, 0x00, 0x00, 0xc1, 0xc5, 0x00, 0xb4,
  0x00, 0x50, 0x00, 0x00, 0x00, 0x00, 0x00, 0x00, 0x00, 0xc3, 0x40, 0x00,
  0x00, 0xc3, 0x00, 0x00, 0x00, 0x40, 0x00, 0x00, 0x00, 0x3e, 0x00, 0x4c,
  0xb8, 0xbd, 0x61, 0x3f, 0x00, 0x00, 0x00, 0x52, 0x00, 0x00, 0x00, 0xbe,
  0x3f, 0x00, 0x00, 0x44, 0x00, 0x00, 0x00, 0x00, 0x00, 0x00, 0xbc, 0x00,
  0x00, 0x3e, 0x00, 0x00, 0x00, 0x3f, 0x00, 0xc0, 0xb1, 0x40, 0x49, 0x00,
  0x00, 0x3a, 0x00, 0x00, 0xb4, 0x00, 0x4a, 0xbf, 0x00, 0x00, 0x00, 0x49,
  0x00, 0x00, 0xb5, 0x00, 0x00, 0x00, 0xb5, 0x44, 0xb8, 0x00, 0x00, 0x00,
  0x00, 0x00, 0xb9, 0xc6, 0x00, 0x00, 0x00, 0x00, 0x00, 0x00, 0x00, 0xb8,
  0x00, 0x42, 0x00, 0x00, 0x00, 0x00, 0xba, 0x00, 0x00, 0x00, 0xc0, 0x00,
  0x00, 0x00, 0x3a, 0x00, 0x00, 0x3e, 0x00, 0x00, 0x00, 0x00, 0xbb, 0xb7,
  0xbc, 0x4d, 0x00, 0x40, 0x00, 0x47, 0x00, 0x00, 0xc1, 0x00, 0x00, 0x00,
  0xbc, 0x00, 0x00, 0xbf, 0x00, 0x00, 0x00, 0x3e, 0x00, 0xb6, 0x00, 0x4d,
  0x3c, 0x49, 0x00, 0x00, 0x00, 0x00, 0x00, 0xb3, 0x40, 0xc3, 0x00, 0x00,
  0x00, 0x00, 0x00, 0x00, 0xc3, 0x00, 0x00, 0x00, 0x00, 0x49, 0x3d, 0x00,
  0x00, 0x00, 0x00, 0x00, 0x00, 0xb1, 0x00, 0x00, 0x00, 0x00, 0x00, 0x00,
  0x00, 0x3c, 0x00, 0x00, 0xb8, 0x00, 0x00, 0x00, 0x00, 0x00, 0x00, 0x00,
  0x00, 0x48, 0x00, 0x3b, 0x4d, 0x00, 0x00, 0x00, 0xb7, 0x41, 0x3a, 0x45,
  0xb1, 0x00, 0x00, 0x00, 0x00, 0x00, 0x00, 0x3d, 0x40, 0x41, 0x00, 0x00,
  0x3c, 0x00, 0x00, 0x00, 0x00, 0x00, 0x00, 0x00, 0x00, 0x00, 0x00, 0x5c,
  0x00, 0x00, 0x00, 0x00, 0x00, 0x00, 0x00, 0x00, 0x00, 0x00, 0x00, 0x00,
  0x00, 0x00, 0x00, 0x00, 0x00, 0x00, 0x4a, 0xc2, 0x00, 0x00, 0x00, 0x00,
  0x00, 0x00, 0x00, 0x00, 0x00, 0xb7, 0x00, 0xb6, 0x00, 0x00, 0x4f, 0x00,
  0x40, 0x50, 0x00, 0x3a, 0x00, 0x00, 0xb3, 0x00, 0x00, 0x00, 0x00, 0xb6,
  0x00, 0x00, 0x3d, 0x00, 0x00, 0x00, 0x3b, 0x00, 0x00, 0x00, 0x3a, 0xc4,
  0x00, 0x00, 0x00, 0x77, 0x00, 0x00, 0x00, 0x00, 0x00, 0xb6, 0x47, 0x00,
  0x00, 0x00, 0x00, 0x00, 0x00, 0x4d, 0x00, 0x4c, 0x00, 0x4b, 0xb6, 0x00,
  0x4f, 0x00, 0x00, 0x00, 0xba, 0xb1, 0x00, 0x45, 0x00, 0x00, 0xc1, 0x45,
  0x00, 0x00, 0xbb, 0x00, 0xb7, 0xb3, 0x00, 0x00, 0x00, 0x00, 0x00, 0xb4,
  0x00, 0x00, 0x00, 0x00, 0xb5, 0x00, 0x00, 0x49, 0x00, 0x00, 0xbc, 0x00,
  0x00, 0x00, 0xbd, 0x00, 0x00, 0x45, 0x00, 0x00, 0x00, 0x00, 0xc5, 0x00,
  0x42, 0x48, 0x00, 0x00, 0x00, 0x00, 0x00, 0x54, 0xc2, 0xc2, 0x00, 0x00,
  0x00, 0x00, 0xc4, 0x00, 0x00, 0x00, 0x00, 0x00, 0x00, 0x00, 0x00, 0x00,
  0x00, 0xc4, 0x3d, 0x00, 0xb7, 0xbb, 0x00, 0x00, 0x47, 0x00, 0x00, 0x42,
  0xb5, 0x00, 0x00, 0x00, 0x00, 0x00, 0x49, 0x00, 0x00, 0x00, 0x00, 0x00,
  0x00, 0x00, 0x00, 0x41, 0x00, 0xb8, 0x00, 0x00, 0x3b, 0x00, 0x00, 0x49,
  0xc4, 0x00, 0x00, 0x00, 0xb5, 0x00, 0x00, 0x00, 0x00, 0x00, 0x00, 0xba,
  0x00, 0x00, 0x00, 0x00, 0x00, 0x00, 0x00, 0x00, 0x40, 0x00, 0x6a, 0x00,
  0x45, 0x00, 0xbb, 0xc1, 0x00, 0x00, 0x00, 0x39, 0xc3, 0x00, 0x5b, 0x00,
  0x4b, 0x00, 0x00, 0x00, 0x00, 0x00, 0x00, 0xbf, 0x00, 0x00, 0x00, 0x00,
  0x00, 0x00, 0x00, 0x00, 0xbd, 0x3c, 0x00, 0x00, 0xc1, 0x4a, 0x00, 0x00,
  0xb4, 0xbe, 0x00, 0x00, 0x00, 0x46, 0x00, 0x00, 0x3d, 0xbb, 0x00, 0x71,
  0xbb, 0x00, 0x00, 0x00, 0x00, 0x44, 0x00, 0x00, 0x00, 0x46, 0xb4, 0x47,
  0x00, 0xc5, 0x3d, 0x4b, 0x00, 0xb8, 0xc2, 0x39, 0xb2, 0x00, 0xb6, 0x3b,
  0xc7, 0x00, 0x00, 0x00, 0x00, 0x49, 0xba, 0x00, 0x00, 0x00, 0x00, 0x00,
  0x00, 0x00, 0x00, 0x00, 0x00, 0x40, 0x00, 0xbe, 0x00, 0x00, 0x00, 0x00,
  0xba, 0xc1, 0x00, 0x00, 0x3f, 0x44, 0xb6, 0x00, 0x00, 0x41, 0x00, 0x00,
  0x00, 0xb2, 0x00, 0x00, 0x00, 0x00, 0x00, 0x00, 0x00, 0x00, 0x00, 0x00,
  0x00, 0x00, 0x00, 0x00, 0x00, 0x00, 0xc1, 0x00, 0x43, 0x4f, 0x00, 0x00,
  0x00, 0x00, 0x00, 0x00, 0x00, 0x00, 0x00, 0x00, 0x45, 0x00, 0x00, 0xba,
  0x00, 0x39, 0x4c, 0x00, 0xb6, 0x00, 0x00, 0x00, 0x00, 0x00, 0x00, 0x00,
  0x00, 0x4d, 0x00, 0x00, 0x00, 0x4b, 0x00, 0x48, 0x00, 0x00, 0x00, 0x00,
  0x00, 0xc0, 0x00, 0x4c, 0xb9, 0x00, 0x00, 0x3d, 0x00, 0x00, 0xbb, 0xc6,
  0x00, 0x00, 0x48, 0x74, 0x3c, 0x3b, 0x00, 0x00, 0x00, 0x3b, 0x47, 0x00,
  0x00, 0xc2, 0x00, 0x00, 0x00, 0x00, 0xb9, 0x43, 0x00, 0x00, 0x00, 0x00,
  0x00, 0xb3, 0x00, 0x00, 0x00, 0x00, 0x00, 0xaf, 0x00, 0x00, 0x00, 0x00,
  0x00, 0x3c, 0xbf, 0x00, 0x00, 0x00, 0x00, 0x41, 0x46, 0x00, 0x00, 0x00,
  0xb3, 0x00, 0x00, 0x47, 0x00, 0x40, 0x00, 0x42, 0x00, 0x00, 0xba, 0x00,
  0x00, 0x00, 0x00, 0x00, 0x00, 0xb6, 0x00, 0x77, 0x00, 0x00, 0x00, 0xb7,
  0xbd, 0x00, 0x00, 0x00, 0x00, 0x00, 0x00, 0x43, 0x00, 0x3e, 0x00, 0xb2,
  0xc2, 0x4e, 0x40, 0x00, 0x00, 0x44, 0x00, 0xbf, 0x3a, 0xaf, 0x00, 0x00,
  0x00, 0x00, 0x48, 0x00, 0x00, 0x00, 0x00, 0x00, 0x00, 0x00, 0x00, 0x00,
  0x3d, 0x00, 0x00, 0x00, 0x00, 0x00, 0x00, 0xc2, 0x00, 0x00, 0x00, 0x42,
  0x00, 0x00, 0x00, 0x00, 0x43, 0x50, 0x3d, 0x00, 0x00, 0x00, 0x00, 0x00,
  0x00, 0x00, 0x00, 0x00, 0x00, 0x00, 0x00, 0x00, 0x00, 0x00, 0x00, 0xb1,
  0x00, 0x00, 0x00, 0x00, 0xbf, 0x00, 0x3a, 0x00, 0xb2, 0xc6, 0x00, 0xbb,
  0x00, 0x00, 0x00, 0xba, 0x3b, 0xba, 0x00, 0x00, 0x00, 0x00, 0x4d, 0x00,
  0x00, 0x00, 0xb5, 0x3f, 0x00, 0xb3, 0x00, 0x00, 0x00, 0xc6, 0xc4, 0x00,
  0x00, 0x00, 0x00, 0x00, 0x00, 0x00, 0x4b, 0x49, 0x00, 0x00, 0x00, 0x41,
  0x00, 0x00, 0x00, 0x00, 0x00, 0x00, 0x3e, 0x44, 0x00, 0x00, 0x00, 0x00,
  0xbf, 0x00, 0x00, 0x00, 0x00, 0x00, 0xbe, 0x00, 0xc7, 0xbb, 0x3e, 0x00,
  0x00, 0x00, 0x00, 0x00, 0x00, 0x00, 0x00, 0x00, 0x4e, 0xb6, 0x00, 0x00,
  0x47, 0x00, 0x00, 0xba, 0x00, 0x00, 0x00, 0x00, 0x49, 0x00, 0x00, 0x00,
  0xb4, 0x00, 0xc7, 0xb9, 0x00, 0x00, 0x45, 0x00, 0xb1, 0x00, 0xb2, 0x00,
  0x00, 0x3e, 0x00, 0x00, 0x00, 0x47, 0x00, 0x00, 0x00, 0x41, 0x00, 0xc5,
  0xb3, 0x00, 0xb8, 0x00, 0x00, 0x00, 0xc0, 0x00, 0x49, 0x00, 0x3e, 0x00,
  0x00, 0x00, 0x00, 0x00, 0xb8, 0x00, 0xb1, 0x00, 0x00, 0x3a, 0x00, 0x00,
  0x00, 0x00, 0x00, 0x00, 0x00, 0x00, 0x00, 0x45, 0x00, 0x00, 0x00, 0x00,
  0xb7, 0x00, 0x00, 0x00, 0x00, 0x00, 0x00, 0x45, 0xc5, 0x00, 0x00, 0x00,
  0x00, 0x00, 0x00, 0x00, 0x00, 0x5e, 0x00, 0x00, 0x00, 0x00, 0xc7, 0x00,
  0x4d, 0xbe, 0x00, 0x00, 0x00, 0x00, 0x6c, 0x00, 0x00, 0x00, 0x00, 0x00,
  0x00, 0x00, 0x00, 0x00, 0x00, 0x4d, 0x00, 0x00, 0x00, 0x3a, 0x00, 0x00,
  0x00, 0x00, 0x41, 0x00, 0x00, 0x00, 0x00, 0x00, 0x00, 0xba, 0x00, 0x00,
  0x00, 0xb0, 0x00, 0x00, 0xbe, 0x00, 0xc4, 0x4f, 0x00, 0x3a, 0x00, 0x00,
  0x00, 0xc6, 0x00, 0x00, 0xb5, 0x00, 0x00, 0x00, 0x00, 0x00, 0x42, 0x42,
  0xbd, 0x00, 0x00, 0x00, 0x00, 0x4e, 0x3e, 0x00, 0x00, 0x00, 0x4a, 0x00,
  0x46, 0xb9, 0x00, 0x00, 0xbd, 0x00, 0x00, 0x5b, 0x00, 0x00, 0x00, 0x3c,
  0x00, 0x00, 0x00, 0x00, 0x00, 0x49, 0x00, 0x00, 0x4c, 0x00, 0x00, 0x00,
  0x00, 0x00, 0x00, 0xb6, 0xc2, 0x00, 0x00, 0x00, 0x46, 0x00, 0x50, 0x3c,
  0x00, 0x00, 0x00, 0x00, 0x39, 0x42, 0xc7, 0x00, 0x00, 0x00, 0x00, 0xc0,
  0x4c, 0xb7, 0x00, 0x00, 0x00, 0x00, 0x00, 0xc1, 0x00, 0x00, 0x00, 0x3c,
  0x00, 0xbf, 0x3f, 0x00, 0xb7, 0xbb, 0x00, 0x00, 0x00, 0x00, 0x00, 0x00,
  0x00, 0x00, 0x00, 0x4c, 0x00, 0x00, 0x00, 0x00, 0x00, 0x00, 0x00, 0xbb,
  0x00, 0x44, 0x49, 0x00, 0x00, 0x00, 0x00, 0x00, 0x00, 0x00, 0xbe, 0x00,
  0x00, 0x3d, 0x41, 0x00, 0xc5, 0xb0, 0x00, 0x00, 0x00, 0x00, 0xbc, 0x00,
  0x40, 0x00, 0x47, 0x00, 0x00, 0xbb, 0xbf, 0x00, 0x00, 0x00, 0x59, 0x45,
  0x00, 0x00, 0x00, 0x00, 0x00, 0x3e, 0x00, 0x00, 0x00, 0x00, 0x00, 0x00,
  0x00, 0x00, 0x00, 0x00, 0x00, 0x00, 0x00, 0x00, 0x00, 0x00, 0x00, 0x00,
  0x00, 0x00, 0x4d, 0x00, 0x00, 0x00, 0x00, 0x00, 0xc0, 0x00, 0xbd, 0x00,
  0x00, 0x4f, 0x00, 0x00, 0x00, 0x00, 0x00, 0x00, 0x00, 0x00, 0xc7, 0x00,
  0x3d, 0x42, 0x00, 0x00, 0x00, 0x00, 0x00, 0x00, 0x00, 0x00, 0xbd, 0x49,
  0x00, 0x00, 0x00, 0x00, 0x00, 0x3a, 0xb8, 0xb5, 0x00, 0x00, 0x00, 0x43,
  0xc5, 0x00, 0x00, 0x00, 0x00, 0x49, 0x00, 0x00, 0x3c, 0x00, 0x00, 0x00,
  0x00, 0x54, 0x00, 0x00, 0x00, 0x00, 0x00, 0x00, 0x00, 0x00, 0x00, 0x00,
  0x00, 0x00, 0x00, 0x00, 0x44, 0x00, 0x00, 0xbe, 0x46, 0x00, 0xc0, 0x00,
  0x00, 0x00, 0x00, 0x00, 0x00, 0xb8, 0x00, 0x00, 0x00, 0x00, 0x3a, 0x00,
  0x00, 0x00, 0xc5, 0x00, 0x00, 0x00, 0x00, 0x00, 0x00, 0x00, 0x00, 0x00,
  0x4d, 0x00, 0x00, 0x00, 0x4c, 0x00, 0x00, 0x00, 0x00, 0x00, 0x00, 0x3c,
  0x00, 0xbe, 0x00, 0xb3, 0x00, 0x00, 0x00, 0xb1, 0x00, 0x4b, 0x00, 0x00,
  0x4b, 0x00, 0x49, 0xbd, 0xb5, 0x00, 0x00, 0xc1, 0xbd, 0x00, 0xb8, 0x00,
  0x00, 0x00, 0x00, 0xb4, 0x00, 0x00, 0x00, 0x3d, 0x4c, 0xb3, 0x00, 0x00,
  0x00, 0x00, 0x00, 0x00, 0xbc, 0xb7, 0x43, 0x00, 0x4a, 0x48, 0x00, 0x46,
  0x00, 0x46, 0x00, 0x00, 0x00, 0xc4, 0x00, 0x00, 0x00, 0xb2, 0x00, 0x4a,
  0x00, 0x00, 0x00, 0x00, 0x00, 0x00, 0x00, 0x00, 0x00, 0xb1, 0x4c, 0xbb,
  0x00, 0x00, 0x00, 0x00, 0xad, 0xaf, 0x00, 0x00, 0x00, 0x00, 0x00, 0x00,
  0x00, 0x00, 0x3a, 0x00, 0x00, 0x00, 0x00, 0x3d, 0x00, 0x41, 0x00, 0x00,
  0x00, 0x00, 0x00, 0x00, 0x00, 0x00, 0x00, 0x00, 0x00, 0x48, 0x00, 0x54,
  0x3c, 0xbe, 0x00, 0xbd, 0x00, 0x00, 0x00, 0x00, 0x00, 0x00, 0x00, 0x4d,
  0x00, 0xb7, 0x00, 0x00, 0x48, 0xc0, 0x00, 0x3d, 0x00, 0x00, 0x00, 0x41,
  0x00, 0x00, 0xc7, 0x00, 0x40, 0x00, 0x00, 0x00, 0x00, 0xac, 0xc5, 0x00,
  0x00, 0x00, 0x00, 0x00, 0x00, 0x00, 0x00, 0x00, 0x00, 0x00, 0x00, 0x00,
  0x00, 0x00, 0xc0, 0x41, 0x00, 0x52, 0x00, 0x00, 0x00, 0x00, 0x49, 0x00,
  0x00, 0x00, 0x00, 0x00, 0xbd, 0x00, 0x00, 0x46, 0x00, 0x00, 0x00, 0xc3,
  0x4b, 0xb5, 0x00, 0xc2, 0xc7, 0x00, 0x00, 0x40, 0x00, 0x00, 0x00, 0x00,
  0x00, 0x00, 0x00, 0x00, 0x00, 0xbe, 0x00, 0x00, 0x44, 0x00, 0x00, 0x47,
  0x00, 0x44, 0xb4, 0x62, 0x00, 0x00, 0xbb, 0x43, 0x00, 0x00, 0x00, 0xb7,
  0x00, 0x00, 0x00, 0x39, 0x00, 0x00, 0x00, 0x00, 0x00, 0x00, 0xb9, 0x00,
  0x00, 0x00, 0x00, 0x00, 0x41, 0x00, 0x00, 0x00, 0x00, 0x00, 0x00, 0x00,
  0x4e, 0x00, 0x5c, 0x00, 0x00, 0xc1, 0x00, 0xc6, 0xbd, 0xb5, 0x00, 0x00,
  0x00, 0x00, 0x00, 0x00, 0x4e, 0x46, 0x00, 0xc4, 0xbc, 0x00, 0x00, 0x00,
  0x00, 0x44, 0x00, 0xbc, 0x00, 0x00, 0x00, 0x00, 0xc7, 0xb3, 0x44, 0x00,
  0x00, 0x00, 0x00, 0x00, 0x00, 0x00, 0x3d, 0xbf, 0xb3, 0x00, 0xbb, 0x45,
  0x49, 0x00, 0xc5, 0xb7, 0x00, 0x00, 0x00, 0x00, 0xb3, 0x00, 0x3b, 0xb7,
  0x48, 0x00, 0x00, 0x00, 0x00, 0x00, 0x4d, 0x00, 0x3b, 0x4a, 0x00, 0x00,
  0x00, 0xc1, 0x00, 0x00, 0x00, 0x00, 0x00, 0x00, 0x00, 0x00, 0x4a, 0xb5,
  0x00, 0x3c, 0x3c, 0x3e, 0x00, 0x00, 0x00, 0x3b, 0x00, 0x4c, 0xbe, 0x00,
  0xc5, 0xb3, 0x00, 0x00, 0x00, 0x43, 0x42, 0x00, 0x00, 0x00, 0x00, 0xbc,
  0x00, 0x46, 0x00, 0x00, 0x00, 0x00, 0x00, 0x00, 0x00, 0x00, 0x00, 0x00,
  0x00, 0x00, 0x00, 0x00, 0xb7, 0x00, 0x00, 0x00, 0x00, 0x00, 0x00, 0x00,
  0x00, 0x00, 0x00, 0x00, 0x00, 0x00, 0x00, 0x00, 0x00, 0x00, 0x00, 0x00,
  0x00, 0x00, 0x3a, 0x00, 0x00, 0x4b, 0x43, 0x00, 0x00, 0x00, 0x00, 0xc7,
  0xb4, 0x00, 0x00, 0x00, 0x00, 0x00, 0xc2, 0x00, 0x00, 0x00, 0x00, 0x00,
  0x4d, 0x00, 0x00, 0x00, 0x00, 0x00, 0x44, 0x44, 0x00, 0x00, 0x00, 0x00,
  0x00, 0x3d, 0x00, 0x44, 0x00, 0x00, 0x00, 0x00, 0x43, 0x00, 0xb6, 0x00,
  0x00, 0x41, 0x00, 0x00, 0x47, 0x00, 0x00, 0x00, 0xb9, 0x3f, 0x00, 0x00,
  0x00, 0x00, 0x00, 0x43, 0x00, 0xc3, 0x00, 0xbb, 0x00, 0x3e, 0x00, 0x00,
  0x00, 0x00, 0x4a, 0xc0, 0x00, 0x00, 0xbd, 0xb9, 0x00, 0xbb, 0x45, 0x00,
  0x3f, 0x00, 0x00, 0x00, 0x00, 0x00, 0x00, 0x00, 0x00, 0x46, 0x00, 0x00,
  0x00, 0x00, 0x49, 0x00, 0x3a, 0x00, 0xb3, 0x40, 0x4d, 0x00, 0x00, 0x00,
  0x00, 0x48, 0x00, 0x00, 0x3e, 0x49, 0x00, 0x00, 0x00, 0x00, 0x00, 0x00,
  0x00, 0xbf, 0xb2, 0xad, 0x4f, 0x4b, 0xbd, 0x00, 0x00, 0x00, 0xbf, 0x00,
  0xb2, 0x4a, 0x00, 0xb2, 0x00, 0x49, 0x42, 0x00, 0xc7, 0x00, 0x00, 0x00,
  0x00, 0x00, 0x00, 0x00, 0x00, 0x00, 0x00, 0x00, 0x40, 0xbd, 0x00, 0x00,
  0x00, 0x00, 0x00, 0x00, 0x44, 0x00, 0x00, 0x00, 0x00, 0x00, 0x4c, 0xc7,
  0x39, 0x00, 0x00, 0x00, 0x00, 0x00, 0x00, 0x00, 0x00, 0x00, 0x00, 0x00,
  0x00, 0x00, 0x00, 0xb6, 0x00, 0x00, 0x00, 0x00, 0x00, 0x00, 0x49, 0xc5,
  0x00, 0x47, 0x00, 0x00, 0x47, 0xc6, 0x00, 0x00, 0x00, 0x40, 0xc0, 0x00,
  0x00, 0x00, 0x00, 0x00, 0x00, 0x00, 0x00, 0x00, 0x00, 0x41, 0x00, 0x00,
  0x00, 0x00, 0xb3, 0xbc, 0xbf, 0x00, 0xbd, 0x00, 0x00, 0x00, 0x00, 0x00,
  0x41, 0x00, 0x00, 0x00, 0x4c, 0x4c, 0x00, 0x00, 0x00, 0x3d, 0x00, 0x41,
  0x39, 0x00, 0x00, 0x00, 0x00, 0x3d, 0x00, 0x00, 0x00, 0x00, 0x3f, 0x00,
  0xb8, 0x00, 0xb5, 0x45, 0x00, 0x00, 0x00, 0x53, 0xc3, 0x00, 0x00, 0x00,
  0x00, 0x00, 0x00, 0x45, 0x00, 0x00, 0x00, 0x00, 0x00, 0x00, 0xad, 0x00,
  0x00, 0x00, 0xc1, 0x4a, 0x00, 0x00, 0x00, 0x00, 0x00, 0x00, 0x00, 0x00,
  0x00, 0x39, 0xb7, 0x00, 0x00, 0x43, 0x00, 0x00, 0x00, 0x00, 0x00, 0x00,
  0x00, 0x00, 0x00, 0x00, 0x00, 0x00, 0x00, 0x00, 0x00, 0x00, 0x00, 0x3a,
  0x00, 0x00, 0xb7, 0x00, 0x00, 0x00, 0x00, 0x00, 0x00, 0x00, 0x00, 0x00,
  0x00, 0x00, 0x00, 0x00, 0x00, 0x00, 0x00, 0x00, 0xbd, 0x00, 0x00, 0x00,
  0x00, 0x00, 0x00, 0x4a, 0x00, 0xbd, 0x00, 0x00, 0x00, 0x00, 0x00, 0xbe,
  0x00, 0x50, 0x00, 0x00, 0x00, 0x00, 0x00, 0x00, 0x00, 0x00, 0x00, 0x00,
  0x00, 0xbe, 0x00, 0xa9, 0xbc, 0x00, 0x4b, 0xc5, 0x44, 0xb5, 0x00, 0x00,
  0x41, 0xc6, 0xbc, 0x00, 0x00, 0x00, 0x00, 0x00, 0x3c, 0x43, 0x00, 0x45,
  0x00, 0x00, 0x66, 0x41, 0x00, 0x00, 0x00, 0x00, 0xc4, 0x00, 0x00, 0x00,
  0x00, 0x00, 0x00, 0x00, 0x00, 0x3f, 0x00, 0xc6, 0x00, 0x46, 0x00, 0x00,
  0x00, 0x00, 0x00, 0x3a, 0x00, 0x00, 0x00, 0x00, 0x00, 0xc2, 0xb7, 0x00,
  0x00, 0x00, 0x00, 0x00, 0x00, 0x00, 0x00, 0x00, 0x00, 0x00, 0x00, 0x00,
  0xb3, 0x00, 0x00, 0x00, 0x00, 0x00, 0x00, 0x00, 0x00, 0x00, 0x00, 0x00,
  0xbe, 0x00, 0x00, 0x00, 0x00, 0x00, 0xbb, 0x00, 0x00, 0x00, 0x00, 0x00,
  0x00, 0x00, 0xbe, 0x00, 0xb0, 0x48, 0xc7, 0x00, 0x00, 0x00, 0x00, 0x00,
  0x00, 0x00, 0x00, 0x00, 0x41, 0x00, 0x00, 0xb5, 0x00, 0x00, 0xc4, 0x00,
  0xc6, 0x00, 0x00, 0x3a, 0xc2, 0x00, 0x00, 0x00, 0x00, 0x00, 0x00, 0x00,
  0x00, 0x4a, 0x00, 0x00, 0x00, 0x3f, 0xb9, 0x4f, 0x00, 0x00, 0xc0, 0x00,
  0x3b, 0x00, 0x00, 0x00, 0x3c, 0x4f, 0x00, 0x00, 0x00, 0x00, 0x00, 0x00,
  0x00, 0x00, 0x00, 0x00, 0x00, 0x00, 0x3e, 0x00, 0x00, 0x00, 0x00, 0x00,
  0x3d, 0x00, 0x00, 0x00, 0x41, 0x00, 0x00, 0x00, 0x00, 0x00, 0xbe, 0x47,
  0x00, 0xb5, 0x00, 0x00, 0x00, 0x00, 0x00, 0x00, 0x00, 0x45, 0x00, 0x00,
  0xbe, 0x00, 0x00, 0x00, 0x00, 0x00, 0x00, 0x00, 0x42, 0x41, 0x3f, 0x00,
  0x00, 0x00, 0x00, 0x3c, 0xc0, 0x00, 0x00, 0x4d, 0x00, 0x00, 0xac, 0x4a,
  0x44, 0x56, 0x00, 0xc3, 0x00, 0x4e, 0x00, 0xc5, 0x00, 0x00, 0x43, 0x00,
  0x00, 0x00, 0x41, 0x00, 0x00, 0x00, 0x00, 0xbf, 0x00, 0x00, 0x3d, 0x00,
  0x00, 0x00, 0x49, 0xbb, 0x00, 0x00, 0x00, 0x00, 0x00, 0x00, 0x00, 0x00,
  0x00, 0xb5, 0x00, 0x00, 0x00, 0x00, 0x00, 0xb7, 0xc1, 0x00, 0x00, 0x00,
  0x00, 0x00, 0x00, 0xb8, 0x00, 0x00, 0x00, 0x00, 0x00, 0x00, 0xb7, 0x00,
  0x00, 0x00, 0x00, 0xc4, 0x00, 0x3e, 0x00, 0x00, 0x00, 0x00, 0xbd, 0x00,
  0x43, 0x00, 0x00, 0x3d, 0xaf, 0xb5, 0x00, 0x00, 0x00, 0x00, 0xbc, 0x5c,
  0x00, 0x00, 0x00, 0x3f, 0x00, 0x00, 0xbd, 0x00, 0x00, 0x00, 0x00, 0x00,
  0x00, 0x00, 0x00, 0x00, 0x00, 0x3d, 0x4a, 0x00, 0x00, 0x00, 0x4a, 0x00,
  0x00, 0x00, 0x63, 0xba, 0x42, 0x00, 0xc7, 0x00, 0x00, 0x3c, 0x00, 0x00,
  0x00, 0x00, 0x00, 0x3b, 0x00, 0x00, 0x00, 0x00, 0x00, 0x00, 0x00, 0x00,
  0x00, 0x00, 0x40, 0x00, 0x00, 0x00, 0x00, 0x00, 0x00, 0x00, 0x00, 0x00,
  0xc6, 0x00, 0x00, 0x6e, 0x00, 0x00, 0x00, 0x00, 0x41, 0x00, 0x00, 0x3c,
  0x00, 0x00, 0x3c, 0x00, 0x00, 0x00, 0x47, 0x00, 0x00, 0x00, 0x00, 0xc2,
  0x00, 0x00, 0x00, 0x00, 0x00, 0x00, 0xb2, 0x00, 0x00, 0xb0, 0x00, 0x00,
  0x00, 0x00, 0x00, 0x00, 0xc0, 0x3d, 0x00, 0x4c, 0x48, 0xbd, 0x39, 0x00,
  0x41, 0x40, 0x00, 0x00, 0xbb, 0x00, 0xc2, 0x00, 0x3c, 0x00, 0x00, 0x00,
  0x00, 0x00, 0x00, 0x4a, 0x00, 0x00, 0x00, 0x00, 0x00, 0x41, 0x40, 0x00,
  0xbd, 0x4a, 0x00, 0x00, 0x00, 0x00, 0x00, 0xc2, 0x00, 0x00, 0x00, 0x00,
  0x00, 0x00, 0x00, 0x00, 0x00, 0x00, 0xba, 0x4f, 0x00, 0x00, 0xbf, 0x00,
  0x00, 0x00, 0x00, 0x49, 0xc5, 0x00, 0x00, 0x00, 0x48, 0x00, 0x00, 0x00,
  0x00, 0x00, 0x00, 0xbd, 0x00, 0x43, 0x00, 0x00, 0xba, 0x00, 0x00, 0x42,
  0x00, 0x00, 0x00, 0x00, 0xb3, 0x00, 0x00, 0x00, 0x00, 0x00, 0x00, 0x00,
  0x00, 0x00, 0x00, 0xb5, 0x00, 0xc0, 0x00, 0x43, 0x00, 0x00, 0x00, 0x00,
  0x00, 0x00, 0x00, 0x3e, 0x00, 0x00, 0x00, 0x00, 0x00, 0x00, 0x00, 0x3b,
  0xb4, 0x00, 0x00, 0x00, 0x00, 0x00, 0x00, 0x00, 0x00, 0x3d, 0xb6, 0xc0,
  0x00, 0x00, 0x00, 0x4b, 0x00, 0x00, 0x00, 0x00, 0x00, 0x00, 0x00, 0x00,
  0xb5, 0x00, 0x00, 0x3c, 0x46, 0x00, 0x00, 0x00, 0x00, 0x00, 0x00, 0x00,
  0x00, 0xbc, 0x3a, 0x42, 0xb9, 0x00, 0x00, 0x48, 0x00, 0x00, 0x00, 0x00,
  0x00, 0x00, 0x00, 0x00, 0xc5, 0x00, 0x00, 0x00, 0x00, 0xb8, 0x00, 0x00,
  0x4d, 0xbd, 0x00, 0x00, 0x00, 0x00, 0x00, 0x00, 0xb7, 0x00, 0x3f, 0x00,
  0x4d, 0x4f, 0x00, 0x00, 0x4e, 0x00, 0x53, 0x48, 0x3a, 0x53, 0x00, 0x00,
  0x00, 0x00, 0x00, 0x3f, 0x00, 0xc2, 0x00, 0x00, 0x4b, 0x00, 0x00, 0x49,
  0x3e, 0x00, 0x5b, 0x00, 0x00, 0x00, 0x00, 0x00, 0x00, 0x00, 0x00, 0x00,
  0x00, 0x00, 0x00, 0x00, 0x00, 0x00, 0x00, 0x00, 0x00, 0xba, 0x00, 0x00,
  0x00, 0x00, 0x00, 0x00, 0x00, 0xb0, 0x00, 0x00, 0x00, 0x00, 0x00, 0x00,
  0x00, 0x00, 0x00, 0xb6, 0xb6, 0x00, 0xc6, 0x00, 0x00, 0x39, 0x00, 0x00,
  0x43, 0x00, 0x00, 0x00, 0x00, 0x00, 0x00, 0x40, 0x3e, 0x00, 0xc4, 0x00,
  0x4d, 0x41, 0x00, 0x00, 0x00, 0x00, 0x00, 0x00, 0x00, 0x00, 0x00, 0x00,
  0x00, 0xb6, 0x00, 0x4a, 0x00, 0x00, 0xbf, 0x00, 0x00, 0x00, 0x00, 0x3e,
  0x3a, 0xb9, 0x00, 0x00, 0xb1, 0x00, 0x00, 0x00, 0x00, 0x00, 0x00, 0x00,
  0x00, 0x00, 0xb4, 0x00, 0x00, 0x00, 0x45, 0x00, 0x00, 0x00, 0x00, 0x00,
  0x00, 0x00, 0xc2, 0x00, 0x53, 0x00, 0x67, 0x00, 0x43, 0x00, 0x00, 0x00,
  0x00, 0xb6, 0x00, 0x3d, 0x00, 0x00, 0x00, 0x00, 0x55, 0x00, 0x00, 0x4d,
  0x00, 0x00, 0x00, 0x00, 0x3d, 0x00, 0x00, 0x00, 0x00, 0x00, 0x00, 0x00,
  0x48, 0x00, 0x00, 0x00, 0x00, 0x00, 0x41, 0x00, 0x00, 0xba, 0x00, 0xc3,
  0x00, 0x00, 0x00, 0x3c, 0x00, 0x00, 0x00, 0x42, 0x3a, 0x00, 0x00, 0x00,
  0x40, 0x00, 0x00, 0xc6, 0xc1, 0x49, 0x00, 0xb6, 0x00, 0x00, 0x00, 0x00,
  0x00, 0x3c, 0x00, 0x00, 0x00, 0x00, 0x00, 0x54, 0x45, 0xb5, 0x00, 0x00,
  0x00, 0x00, 0x00, 0x00, 0x00, 0x00, 0x00, 0x39, 0x00, 0x00, 0x00, 0xbb,
  0x3a, 0x00, 0x00, 0x00, 0xb3, 0xb9, 0xc6, 0xbc, 0x00, 0x00, 0x00, 0x00,
  0x00, 0x00, 0x00, 0xb7, 0x00, 0x00, 0x00, 0x00, 0x00, 0x49, 0x00, 0x00,
  0x00, 0x00, 0x00, 0x00, 0x00, 0x00, 0x00, 0x00, 0x00, 0x00, 0x46, 0x00,
  0x00, 0x00, 0x4c, 0x00, 0x00, 0x00, 0x00, 0x00, 0x00, 0x00, 0x00, 0x00,
  0x4c, 0x00, 0x00, 0x4e, 0x00, 0x00, 0x4f, 0x4e, 0x00, 0x00, 0x00, 0xbe,
  0x00, 0x00, 0x00, 0x00, 0x00, 0x00, 0x00, 0x00, 0x00, 0x00, 0x00, 0x00,
  0x00, 0x46, 0x00, 0x00, 0x00, 0x00, 0x00, 0x47, 0x46, 0x00, 0x00, 0x00,
  0x00, 0xbc, 0x00, 0xbe, 0x00, 0x00, 0x00, 0x43, 0x00, 0xbd, 0x00, 0x00,
  0x4a, 0x00, 0x62, 0x00, 0xb6, 0x00, 0x00, 0x00, 0x00, 0x00, 0x00, 0x00,
  0xc2, 0x00, 0x00, 0xc3, 0x00, 0x00, 0x00, 0x00, 0x00, 0x00, 0x00, 0x00,
  0x00, 0xbf, 0x00, 0x00, 0x3e, 0x00, 0x00, 0x00, 0xb6, 0x00, 0x00, 0x42,
  0x00, 0x00, 0x00, 0x00, 0x00, 0x00, 0x00, 0x00, 0xbf, 0xb3, 0xb8, 0x3d,
  0x00, 0x00, 0x00, 0x00, 0x00, 0x00, 0x00, 0x00, 0x00, 0x00, 0x3c, 0x00,
  0x00, 0x00, 0x00, 0x00, 0x00, 0x00, 0x00, 0x00, 0x00, 0x43, 0xb2, 0x3c,
  0x00, 0xb6, 0x00, 0xc1, 0x00, 0xbd, 0xba, 0x00, 0x49, 0x00, 0x46, 0xc1,
  0x3f, 0x00, 0x00, 0x00, 0x00, 0xc2, 0x00, 0x00, 0x00, 0xbc, 0x00, 0x00,
  0x00, 0x00, 0x00, 0x00, 0x00, 0xb4, 0x00, 0x51, 0x00, 0x00, 0x00, 0x00,
  0x00, 0x00, 0xc7, 0x00, 0x00, 0xc6, 0x00, 0x00, 0x00, 0x00, 0x00, 0x00,
  0xc1, 0x00, 0x00, 0x00, 0x00, 0x00, 0x00, 0x40, 0x00, 0x00, 0x00, 0x00,
  0x47, 0x00, 0x3d, 0x00, 0x00, 0x00, 0xb3, 0x00, 0xb9, 0x00, 0x00, 0x00,
  0x40, 0x00, 0x00, 0x00, 0x00, 0x00, 0x4d, 0x00, 0x00, 0x00, 0x00, 0x00,
  0x00, 0x00, 0xb5, 0x3a, 0x00, 0x00, 0x00, 0x00, 0x00, 0xb7, 0x00, 0x00,
  0x00, 0x00, 0x00, 0x00, 0x00, 0x00, 0x00, 0x00, 0x00, 0x00, 0x00, 0x00,
  0x00, 0x00, 0x00, 0x00, 0xb5, 0x52, 0x3c, 0x3f, 0xbe, 0x3e, 0x00, 0x00,
  0x00, 0x00, 0x3d, 0x00, 0xb2, 0x00, 0xb4, 0x00, 0x00, 0xbe, 0x00, 0x00,
  0xc2, 0x00, 0x3b, 0xbc, 0x00, 0x00, 0x00, 0xb6, 0x00, 0x00, 0x00, 0x52,
  0x00, 0x00, 0x00, 0x00, 0x00, 0xc5, 0xb6, 0x00, 0xb5, 0x00, 0x00, 0xc6,
  0x3f, 0x00, 0xb4, 0x00, 0x00, 0x49, 0x00, 0x00, 0x46, 0x43, 0x00, 0x00,
  0x00, 0xb7, 0xc2, 0xb2, 0x00, 0x00, 0x44, 0x00, 0xc6, 0x00, 0x00, 0x00,
  0x00, 0x00, 0x00, 0x00, 0x4c, 0x00, 0x00, 0xb1, 0x00, 0xbb, 0x00, 0x00,
  0x00, 0x00, 0x00, 0x00, 0x00, 0x00, 0xb6, 0x00, 0x00, 0x00, 0x3e, 0xc4,
  0x00, 0x00, 0x00, 0x00, 0x45, 0x00, 0x00, 0x00, 0x43, 0x00, 0x00, 0xb3,
  0x00, 0x00, 0x55, 0x00, 0xc3, 0x00, 0xb2, 0x00, 0x00, 0x00, 0x00, 0x3a,
  0x44, 0x63, 0x00, 0xc2, 0xb5, 0x00, 0x00, 0x00, 0x00, 0xb6, 0x00, 0x00,
  0x00, 0x00, 0x00, 0xbd, 0x00, 0x00, 0x00, 0x00, 0x00, 0xbf, 0xbb, 0x00,
  0x00, 0x00, 0x00, 0x00, 0xb9, 0x00, 0xbb, 0x00, 0x00, 0x44, 0x00, 0x00,
  0x00, 0x00, 0x00, 0x00, 0x00, 0x00, 0x00, 0x00, 0x00, 0x00, 0xbb, 0xc5,
  0x00, 0xc4, 0xbe, 0x00, 0x00, 0x00, 0x00, 0xbe, 0x00, 0x00, 0x00, 0x00,
  0x00, 0xb7, 0x00, 0x3a, 0x00, 0x3e, 0xbb, 0x00, 0x00, 0x00, 0x00, 0x4b,
  0x00, 0x3b, 0x00, 0x00, 0x00, 0x00, 0x00, 0x00, 0x00, 0x00, 0x00, 0x00,
  0x00, 0x00, 0x58, 0xa3, 0x00, 0x00, 0x00, 0x00, 0x00, 0x00, 0x44, 0x43,
  0xc0, 0x00, 0x4a, 0x39, 0x3f, 0x00, 0x6e, 0x00, 0x00, 0x56, 0xc5, 0x00,
  0x00, 0x00, 0xb9, 0x00, 0x00, 0x43, 0x00, 0x00, 0xbe, 0x3d, 0x00, 0x00,
  0x00, 0x00, 0x00, 0x00, 0x00, 0x49, 0x00, 0x00, 0x00, 0x00, 0x46, 0x00,
  0x00, 0x00, 0x00, 0x4f, 0x00, 0x00, 0x00, 0x00, 0x00, 0x00, 0x00, 0x00,
  0x00, 0xb8, 0xc3, 0x3b, 0x3f, 0xc3, 0x00, 0xc0, 0xb2, 0x00, 0x00, 0x00,
  0x00, 0x48, 0x00, 0xb8, 0x00, 0x00, 0x00, 0x00, 0x00, 0x00, 0xbe, 0x00,
  0x00, 0x00, 0x00, 0x00, 0x00, 0x00, 0x00, 0x00, 0x00, 0x00, 0x00, 0x4f,
  0x4d, 0x00, 0x00, 0x00, 0x00, 0x00, 0x00, 0x00, 0x00, 0x00, 0x41, 0xba,
  0x00, 0x00, 0x00, 0x00, 0x45, 0x00, 0x00, 0x00, 0x00, 0x00, 0x00, 0x00,
  0x00, 0x00, 0x47, 0x00, 0x00, 0x00, 0x00, 0x00, 0x00, 0x00, 0x00, 0x00,
  0x52, 0x00, 0x4e, 0xc1, 0x00, 0x00, 0x00, 0x00, 0x00, 0x4e, 0x00, 0x00,
  0x00, 0x00, 0x00, 0x00, 0xb3, 0x00, 0x3e, 0x00, 0x00, 0x00, 0x3a, 0x00,
  0x00, 0x3b, 0x00, 0xb2, 0x00, 0x00, 0x00, 0x00, 0x4b, 0x3f, 0x00, 0x72,
  0x00, 0x00, 0x00, 0x00, 0x44, 0x49, 0x4e, 0xbe, 0x00, 0x00, 0x00, 0xc2,
  0x00, 0x00, 0x00, 0x3c, 0x00, 0x00, 0x00, 0x00, 0xc0, 0x00, 0xc1, 0x00,
  0x3b, 0x00, 0xb4, 0x00, 0x00, 0x4d, 0x00, 0x00, 0x00, 0x00, 0x00, 0x00,
  0x00, 0x00, 0x00, 0x00, 0x00, 0x00, 0x00, 0x00, 0x00, 0x00, 0x00, 0xbd,
  0x00, 0x00, 0xb5, 0x00, 0xc0, 0x3e, 0x00, 0x3d, 0x00, 0x00, 0x00, 0x00,
  0x00, 0x00, 0x00, 0x00, 0x00, 0x00, 0x41, 0x00, 0x00, 0x00, 0x00, 0x00,
  0x00, 0x00, 0x00, 0xba, 0x00, 0x00, 0x00, 0x00, 0x4d, 0x00, 0x00, 0xb4,
  0x46, 0x00, 0x40, 0xc1, 0x00, 0x00, 0x00, 0x00, 0xbb, 0x00, 0x00, 0x00,
  0x3d, 0x00, 0x00, 0x00, 0x00, 0xb5, 0x00, 0x00, 0x00, 0x00, 0x00, 0xb8,
  0x3c, 0x00, 0x00, 0x00, 0xb3, 0x00, 0x00, 0xb2, 0xb9, 0x00, 0x41, 0x00,
  0xc0, 0x00, 0x00, 0x39, 0x00, 0x00, 0x00, 0x00, 0xb4, 0x00, 0xc2, 0xb8,
  0x00, 0x00, 0x00, 0x00, 0x00, 0xc5, 0x00, 0x00, 0x00, 0xbb, 0x00, 0x00,
  0xc2, 0x00, 0x00, 0x00, 0x00, 0x00, 0xba, 0x00, 0x00, 0x00, 0x00, 0x00,
  0x42, 0x4e, 0x00, 0x00, 0x00, 0x00, 0x00, 0x3e, 0x00, 0x41, 0x00, 0x00,
  0x00, 0x00, 0x00, 0x00, 0x00, 0x00, 0x00, 0xc0, 0x00, 0x00, 0x00, 0x00,
  0x00, 0xc6, 0x00, 0x00, 0x00, 0x00, 0x00, 0x00, 0xc3, 0xb6, 0x00, 0xb8,
  0x00, 0x00, 0xbe, 0x3a, 0x00, 0x00, 0x00, 0x00, 0x00, 0x3b, 0x00, 0x00,
  0x00, 0x00, 0x00, 0xb6, 0x3f, 0x00, 0xba, 0x00, 0x00, 0x00, 0x00, 0x00,
  0x00, 0x00, 0x00, 0x00, 0x00, 0x00, 0x43, 0x00, 0xc4, 0x00, 0x00, 0x00,
  0x44, 0x00, 0x00, 0x46, 0x4d, 0x00, 0x00, 0xb7, 0x00, 0xb6, 0xc5, 0x00,
  0x00, 0x00, 0x4d, 0x00, 0x43, 0x00, 0x00, 0xbd, 0xbe, 0x00, 0x00, 0xb3,
  0x00, 0x00, 0x00, 0xb3, 0x00, 0xc3, 0x00, 0x00, 0x00, 0xc4, 0x00, 0x00,
  0x00, 0x00, 0xc7, 0x00, 0x00, 0x00, 0x00, 0x00, 0xc4, 0x00, 0x00, 0x00,
  0x00, 0x00, 0x00, 0x00, 0x00, 0x00, 0x00, 0x00, 0x00, 0x00, 0x00, 0xc4,
  0xb9, 0xc4, 0x00, 0x3a, 0x00, 0x00, 0xbc, 0x00, 0x00, 0x00, 0x00, 0x42,
  0x00, 0x00, 0x00, 0x00, 0xb2, 0x00, 0x00, 0x00, 0x00, 0x00, 0xb2, 0x00,
  0x00, 0xb6, 0x00, 0x00, 0x00, 0x00, 0x00, 0xc0, 0xbc, 0x00, 0xb4, 0x00,
  0x00, 0x00, 0x00, 0x00, 0x00, 0x49, 0x00, 0x00, 0xb2, 0x00, 0x00, 0x42,
  0x00, 0x00, 0x00, 0x00, 0x00, 0x00, 0xc2, 0x00, 0x00, 0xb7, 0x00, 0x00,
  0x00, 0x00, 0x00, 0x00, 0x3d, 0x00, 0x00, 0x00, 0x00, 0x00, 0xb4, 0x00,
  0x00, 0xc1, 0x00, 0x00, 0x4c, 0x00, 0xc3, 0x00, 0x00, 0x00, 0x00, 0x00,
  0x00, 0x49, 0x4c, 0x00, 0x00, 0x51, 0x00, 0x00, 0x4f, 0x4a, 0x00, 0xb7,
  0x00, 0xbb, 0x00, 0x00, 0x00, 0x00, 0x00, 0x00, 0x00, 0x00, 0x00, 0x41,
  0x3b, 0x3f, 0x00, 0x00, 0x00, 0x00, 0x4a, 0x00, 0x00, 0x3c, 0xc7, 0x00,
  0x3c, 0x00, 0x00, 0x00, 0x00, 0x00, 0x00, 0xbc, 0x00, 0x00, 0x00, 0x00,
  0x00, 0x00, 0x00, 0x00, 0x00, 0x00, 0x4c, 0x00, 0x4a, 0x00, 0x00, 0x00,
  0x00, 0x00, 0x00, 0x00, 0x00, 0x00, 0x00, 0x00, 0xb8, 0x00, 0x00, 0x00,
  0x00, 0x00, 0x52, 0x46, 0x00, 0x49, 0x00, 0x00, 0x48, 0x00, 0x40, 0xbf,
  0x00, 0x3c, 0x00, 0x00, 0x00, 0x00, 0x00, 0x00, 0x47, 0x00, 0x00, 0x40,
  0x00, 0x00, 0x00, 0x00, 0x00, 0x00, 0x00, 0x4d, 0x00, 0x00, 0x4b, 0x00,
  0x00, 0x00, 0x00, 0x00, 0x00, 0x00, 0x00, 0x00, 0x46, 0x00, 0x00, 0x00,
  0x00, 0x00, 0x00, 0x00, 0x00, 0xc6, 0x00, 0xb6, 0x3a, 0x00, 0x00, 0x00,
  0x48, 0x00, 0x00, 0x4c, 0x00, 0xc1, 0x00, 0xbd, 0xb4, 0x00, 0x00, 0x00,
  0x00, 0x00, 0x00, 0x00, 0x00, 0xbb, 0x3c, 0x00, 0x00, 0x00, 0x00, 0x00,
  0x00, 0x00, 0x49, 0x00, 0x3a, 0x00, 0x00, 0x00, 0x00, 0x00, 0x4c, 0x00,
  0x00, 0xb6, 0x4d, 0x4a, 0x00, 0xba, 0x00, 0x4e, 0x3e, 0x00, 0xc2, 0x00,
  0x00, 0x00, 0x00, 0x00, 0x47, 0x00, 0x00, 0x00, 0x00, 0x00, 0x00, 0x00,
  0x00, 0x00, 0x00, 0x00, 0x4b, 0x00, 0x00, 0x00, 0x00, 0x00, 0x00, 0x52,
  0x00, 0x00, 0x00, 0x43, 0xc3, 0x45, 0x3a, 0x00, 0x00, 0x00, 0x00, 0x00,
  0x00, 0x00, 0x00, 0x00, 0x00, 0x4e, 0x00, 0x00, 0x00, 0x00, 0xb9, 0x00,
  0x00, 0x00, 0x00, 0x00, 0x4a, 0x3a, 0x00, 0xbb, 0x00, 0x00, 0x00, 0x00,
  0x00, 0x00, 0x00, 0xb8, 0x49, 0xbc, 0x00, 0x40, 0x00, 0x00, 0x00, 0x48,
  0xbf, 0x00, 0x4c, 0x00, 0x00, 0x00, 0x46, 0x00, 0xb9, 0x4e, 0x00, 0x00,
  0x00, 0x00, 0xc3, 0xbf, 0x00, 0x00, 0xb9, 0xc5, 0xc1, 0x00, 0xbd, 0x3c,
  0x00, 0x50, 0x6a, 0x00, 0x00, 0x00, 0x00, 0x00, 0x00, 0x00, 0xb7, 0x00,
  0x00, 0x00, 0x70, 0x00, 0x00, 0x00, 0x00, 0x00, 0xb6, 0x00, 0x00, 0x40,
  0x00, 0x00, 0x00, 0xb8, 0x00, 0x51, 0x00, 0x00, 0x00, 0x45, 0x00, 0x00,
  0x00, 0x00, 0x00, 0xb2, 0x00, 0x47, 0x00, 0x00, 0x00, 0x00, 0x00, 0x00,
  0x00, 0xb5, 0xc4, 0x00, 0x00, 0x4c, 0x00, 0x00, 0x00, 0x43, 0x00, 0xbb,
  0x00, 0x00, 0x00, 0x00, 0x00, 0x00, 0x50, 0x43, 0x00, 0x00, 0x42, 0x00,
  0x00, 0x00, 0x00, 0x00, 0x00, 0x00, 0x00, 0x00, 0xc0, 0x00, 0x00, 0x00,
  0x00, 0xae, 0xb8, 0x58, 0xc6, 0x00, 0x00, 0x42, 0x4d, 0x4d, 0x00, 0x00,
  0x00, 0x00, 0x00, 0x00, 0x00, 0x00, 0x00, 0xbd, 0x00, 0x00, 0x00, 0x00,
  0x00, 0x00, 0x48, 0x00, 0x49, 0x00, 0x00, 0x00, 0x00, 0x4d, 0x00, 0x00,
  0x4e, 0x00, 0x00, 0x00, 0x00, 0x4c, 0x00, 0x00, 0x40, 0x00, 0x00, 0x00,
  0x00, 0x00, 0x00, 0x00, 0x00, 0x00, 0x00, 0x00, 0x00, 0x00, 0x00, 0x00,
  0xbf, 0x00, 0xc4, 0x00, 0x00, 0x00, 0x00, 0x00, 0xc2, 0x00, 0x00, 0xc1,
  0x00, 0x00, 0xbe, 0x4d, 0x00, 0x00, 0x00, 0x50, 0xbb, 0x00, 0x00, 0x00,
  0x00, 0xbe, 0xc1, 0x00, 0x00, 0x00, 0x00, 0x00, 0x00, 0x00, 0x00, 0x00,
  0x00, 0x00, 0xc1, 0x00, 0x00, 0x00, 0x00, 0x00, 0x00, 0x00, 0x00, 0xb9,
  0x00, 0x00, 0x00, 0x00, 0x00, 0x00, 0x00, 0x00, 0x00, 0x69, 0x00, 0x00,
  0x00, 0x00, 0x00, 0x00, 0xba, 0x00, 0x44, 0x00, 0x00, 0xaf, 0x60, 0x00,
  0x00, 0x00, 0x00, 0xbc, 0x00, 0x00, 0x00, 0x00, 0x00, 0x00, 0xba, 0x45,
  0x00, 0xbf, 0x00, 0x00, 0xc7, 0x3c, 0x00, 0x00, 0x50, 0x00, 0x39, 0x00,
  0x00, 0x00, 0x00, 0x00, 0xbb, 0x42, 0x00, 0x00, 0x00, 0x00, 0x00, 0x4e,
  0x00, 0x00, 0x00, 0x00, 0x00, 0x00, 0x4a, 0x46, 0x00, 0x00, 0x00, 0x00,
  0x00, 0x00, 0xc6, 0x00, 0x00, 0x00, 0x00, 0x00, 0x4e, 0x00, 0xc0, 0x00,
  0x00, 0x00, 0x00, 0xc3, 0x00, 0x42, 0x00, 0x00, 0x00, 0x00, 0x00, 0x00,
  0x00, 0x00, 0xb6, 0xbf, 0x00, 0x00, 0x00, 0x00, 0x00, 0x00, 0xb5, 0xc1,
  0x00, 0x00, 0x00, 0xc6, 0xc2, 0x00, 0x00, 0x00, 0x00, 0x00, 0x00, 0xbc,
  0x00, 0x4c, 0x00, 0x00, 0x00, 0x00, 0x00, 0x00, 0x00, 0x00, 0x00, 0x00,
  0xb7, 0x00, 0x00, 0x00, 0x00, 0x4d, 0x00, 0xbf, 0x3a, 0x00, 0x4a, 0x45,
  0x00, 0x00, 0x00, 0x00, 0x44, 0x00, 0x00, 0x00, 0x00, 0x4a, 0x00, 0x00,
  0x00, 0x00, 0x00, 0x00, 0x00, 0x00, 0x00, 0x00, 0x00, 0x45, 0x00, 0x45,
  0x00, 0x00, 0xc1, 0x00, 0x00, 0x00, 0xb8, 0xc6, 0xc3, 0x00, 0x00, 0x00,
  0x00, 0x47, 0x00, 0x00, 0x00, 0x00, 0x00, 0x4a, 0x00, 0x39, 0x00, 0x00,
  0xaf, 0x00, 0x00, 0x00, 0x45, 0x00, 0xc7, 0xb9, 0x00, 0x00, 0x4a, 0x00,
  0xb6, 0xb6, 0x00, 0x47, 0x00, 0x00, 0x00, 0x00, 0x00, 0x00, 0xb5, 0x00,
  0x00, 0x4d, 0xc3, 0x00, 0x00, 0x00, 0xbf, 0x00, 0x00, 0x41, 0x00, 0x00,
  0x3b, 0xbe, 0x00, 0x00, 0x00, 0x00, 0x00, 0x00, 0x00, 0xb4, 0x00, 0x00,
  0x00, 0x00, 0x00, 0x00, 0x00, 0x43, 0x00, 0x00, 0x00, 0xb4, 0x00, 0x00,
  0x00, 0x00, 0x00, 0x3a, 0xb2, 0x00, 0x3e, 0xae, 0x3c, 0x00, 0x00, 0x00,
  0x00, 0x00, 0xb7, 0x00, 0x3f, 0x00, 0x00, 0x46, 0x00, 0x00, 0x3a, 0xb3,
  0x00, 0x00, 0x00, 0x00, 0x00, 0x00, 0x00, 0x00, 0x00, 0x00, 0xc0, 0x00,
  0x4f, 0x00, 0xb2, 0x45, 0xbd, 0x4d, 0x00, 0x00, 0x00, 0x00, 0x39, 0x00,
  0x00, 0x00, 0xc4, 0x43, 0x00, 0x00, 0x00, 0x00, 0x00, 0x00, 0x00, 0x00,
  0x47, 0x00, 0x3b, 0x00, 0x00, 0x00, 0x00, 0x00, 0x00, 0x00, 0x00, 0xb7,
  0x52, 0x3c, 0x00, 0x00, 0x00, 0x00, 0x00, 0x00, 0x00, 0x00, 0x00, 0x00,
  0x00, 0x3c, 0x3c, 0x4b, 0x00, 0x00, 0x00, 0x00, 0x00, 0x00, 0x50, 0x48,
  0x00, 0x00, 0x00, 0x00, 0x4a, 0x00, 0x00, 0x40, 0x00, 0x00, 0xbd, 0x00,
  0x00, 0x00, 0x00, 0x00, 0x40, 0x00, 0x00, 0x00, 0x00, 0x00, 0x00, 0x00,
  0x00, 0x00, 0x00, 0x00, 0x00, 0x00, 0x00, 0x00, 0x43, 0x00, 0x00, 0x00,
  0x00, 0xbf, 0x00, 0x00, 0x00, 0x00, 0x00, 0xbc, 0x00, 0x00, 0x00, 0x00,
  0xc1, 0x00, 0x00, 0x00, 0x00, 0x40, 0x00, 0x00, 0x3e, 0x00, 0x00, 0x00,
  0x00, 0x00, 0x62, 0x00, 0x00, 0x00, 0x00, 0x00, 0x00, 0x00, 0x00, 0x00,
  0x00, 0x00, 0xbf, 0x00, 0x00, 0xc2, 0x3f, 0x00, 0x00, 0x00, 0x00, 0x00,
  0x00, 0x00, 0xb9, 0x00, 0x00, 0x41, 0x00, 0xb4, 0x39, 0x00, 0xb2, 0xb9,
  0x00, 0x00, 0x00, 0xb4, 0xc0, 0x00, 0x00, 0x00, 0x00, 0xc5, 0x00, 0x00,
  0x00, 0x00, 0x00, 0xb0, 0x00, 0xbd, 0x00, 0x00, 0x00, 0x00, 0x3e, 0x00,
  0x00, 0x4e, 0x00, 0x00, 0x00, 0x00, 0x00, 0x00, 0x3e, 0x40, 0x00, 0x00,
  0x00, 0x00, 0x00, 0x00, 0x40, 0x52, 0x00, 0x00, 0x3e, 0x00, 0x00, 0x00,
  0x00, 0x00, 0x00, 0x3d, 0x00, 0x00, 0x00, 0x00, 0x00, 0x00, 0xb3, 0x40,
  0x4e, 0xbd, 0xaa, 0x00, 0x00, 0x50, 0x00, 0x00, 0x00, 0x00, 0x00, 0x00,
  0x00, 0x00, 0x00, 0x39, 0xbd, 0x00, 0x00, 0x00, 0x00, 0x00, 0xc3, 0x00,
  0x00, 0x3f, 0x00, 0x00, 0x00, 0x00, 0x00, 0x00, 0x00, 0x3e, 0x00, 0x00,
  0x00, 0x00, 0x00, 0x00, 0x00, 0x00, 0x00, 0x00, 0x00, 0x00, 0xbd, 0x00,
  0x00, 0x00, 0x00, 0x00, 0x00, 0x00, 0x00, 0xbb, 0x00, 0x00, 0x00, 0x00,
  0xbd, 0x00, 0x00, 0xba, 0x00, 0x00, 0x4b, 0x00, 0x00, 0x00, 0x47, 0x00,
  0x00, 0x00, 0x00, 0xb5, 0xc0, 0x00, 0x3f, 0x00, 0x4a, 0x00, 0x00, 0x44,
  0x00, 0x00, 0x48, 0xc5, 0x00, 0x00, 0x00, 0x00, 0x4e, 0x3a, 0x00, 0x00,
  0x40, 0x00, 0xb9, 0x00, 0x00, 0x46, 0x00, 0x00, 0x00, 0x00, 0x00, 0x00,
  0x00, 0x49, 0x4a, 0x00, 0xc7, 0xc2, 0x00, 0x00, 0x00, 0x00, 0xa3, 0xb3,
  0x00, 0xbd, 0x44, 0x00, 0x49, 0xc4, 0x00, 0xbc, 0xc0, 0x00, 0x00, 0x00,
  0x00, 0x3c, 0x00, 0x40, 0x00, 0x00, 0x3a, 0x00, 0x42, 0x00, 0x00, 0x00,
  0x00, 0x00, 0x00, 0x00, 0x00, 0x00, 0x00, 0x00, 0x00, 0x00, 0x00, 0x00,
  0x43, 0xbf, 0x00, 0x00, 0x00, 0x00, 0x00, 0x00, 0x4c, 0xba, 0x00, 0x00,
  0x00, 0x00, 0x00, 0x00, 0x00, 0x00, 0x3b, 0x00, 0x00, 0x00, 0x00, 0x00,
  0x00, 0x00, 0xba, 0x00, 0x00, 0x00, 0x00, 0x00, 0x00, 0x00, 0x00, 0x00,
  0xbe, 0x00, 0x00, 0x00, 0x48, 0x00, 0x00, 0x3d, 0xb3, 0x00, 0x00, 0x00,
  0x00, 0x64, 0x6b, 0x00, 0x00, 0x00, 0x00, 0x00, 0x00, 0x00, 0x00, 0x00,
  0x00, 0x41, 0x00, 0x00, 0x00, 0x00, 0x00, 0x3d, 0x52, 0x00, 0xb5, 0x00,
  0x00, 0xc4, 0x00, 0x50, 0x00, 0x00, 0x00, 0x00, 0x00, 0x00, 0x00, 0x00,
  0x00, 0x00, 0x00, 0x00, 0x00, 0x00, 0x00, 0x4a, 0x00, 0x00, 0xb7, 0x00,
  0x00, 0x00, 0x00, 0x00, 0x45, 0xb1, 0x00, 0x00, 0xc6, 0x00, 0x00, 0x00,
  0x46, 0x00, 0x00, 0x00, 0x00, 0x00, 0x4a, 0x00, 0xc4, 0x00, 0x00, 0x53,
  0x41, 0x00, 0x40, 0x00, 0x4a, 0x00, 0x00, 0x00, 0x47, 0x00, 0x00, 0x00,
  0xbd, 0x00, 0x00, 0x00, 0x00, 0x00, 0x00, 0xbd, 0x00, 0x00, 0x00, 0xb8,
  0xb3, 0x00, 0x00, 0x00, 0x3a, 0x52, 0x00, 0x00, 0x00, 0x00, 0x00, 0x00,
  0x00, 0x44, 0x3d, 0x00, 0x00, 0x00, 0x00, 0x00, 0xba, 0x00, 0x46, 0x00,
  0x00, 0x4b, 0x3d, 0x00, 0xc6, 0x00, 0xbc, 0x00, 0xc4, 0xb8, 0x00, 0x00,
  0x00, 0xc3, 0x00, 0x3c, 0x3a, 0x00, 0x00, 0x00, 0x00, 0x00, 0x00, 0x46,
  0x00, 0x00, 0x00, 0xb8, 0x00, 0xb7, 0x00, 0x00, 0x00, 0x00, 0x00, 0x00,
  0x00, 0x00, 0x00, 0x00, 0x3c, 0x00, 0x4a, 0x00, 0x00, 0x00, 0x51, 0x00,
  0xbb, 0xbb, 0x00, 0x00, 0x00, 0x00, 0x50, 0x00, 0x00, 0x00, 0x00, 0x00,
  0x00, 0xbd, 0x00, 0x00, 0x00, 0x00, 0x00, 0xb2, 0x00, 0x00, 0x00, 0xbd,
  0x00, 0x00, 0x00, 0x00, 0x00, 0x45, 0x3d, 0x00, 0xb8, 0x64, 0x7f, 0x00,
  0x4b, 0x00, 0x00, 0x00, 0xc3, 0x00, 0x00, 0x00, 0x4a, 0x3f, 0x00, 0x00,
  0xc1, 0x00, 0x00, 0x00, 0x00, 0x00, 0x00, 0x45, 0xb4, 0xb5, 0x00, 0x00,
  0xb7, 0x00, 0x00, 0x00, 0x00, 0x00, 0x3a, 0x00, 0x48, 0x00, 0x00, 0x00,
  0x42, 0x00, 0x48, 0x00, 0xb2, 0xc5, 0x00, 0x00, 0x00, 0x00, 0x4a, 0x00,
  0x00, 0x00, 0xc1, 0x00, 0x00, 0x43, 0x00, 0x00, 0x00, 0x00, 0x00, 0x00,
  0x00, 0x00, 0x00, 0x00, 0x00, 0xc5, 0x00, 0x00, 0x00, 0x00, 0x00, 0xc5,
  0x00, 0x00, 0x00, 0x00, 0x00, 0x00, 0x00, 0x49, 0xb8, 0x4a, 0x00, 0xbc,
  0x40, 0x44, 0x00, 0x00, 0x00, 0x00, 0x00, 0x00, 0x00, 0x00, 0x00, 0x00,
  0x00, 0x53, 0x00, 0x3b, 0x00, 0x00, 0x00, 0xb3, 0x47, 0xbe, 0x00, 0x00,
  0x00, 0xc3, 0x00, 0xb8, 0x00, 0x00, 0x3d, 0x00, 0x00, 0x00, 0x00, 0x00,
  0x00, 0x00, 0x00, 0xb5, 0xb8, 0x00, 0x3d, 0x00, 0x00, 0x00, 0xb6, 0x00,
  0xba, 0x00, 0xb7, 0xc0, 0xba, 0x00, 0x00, 0x00, 0x3a, 0xba, 0xbf, 0x00,
  0xc6, 0x00, 0xba, 0x00, 0x00, 0x00, 0x00, 0x00, 0x00, 0x00, 0x00, 0x00,
  0x00, 0x00, 0x00, 0x3f, 0x00, 0x00, 0x00, 0xc3, 0x00, 0xc2, 0x00, 0x00,
  0x00, 0x00, 0xba, 0x00, 0x00, 0x00, 0xbf, 0x00, 0x00, 0x00, 0x00, 0x00,
  0x00, 0xc5, 0x00, 0xa9, 0x00, 0x42, 0x00, 0x00, 0xc7, 0x00, 0x00, 0x00,
  0xb6, 0x00, 0x00, 0x4b, 0x48, 0x00, 0x00, 0x00, 0x00, 0x00, 0x00, 0x00,
  0x00, 0xbc, 0xc5, 0x00, 0x00, 0x42, 0x00, 0x00, 0xaf, 0x00, 0x00, 0xba,
  0x00, 0x00, 0x00, 0x49, 0xb0, 0x00, 0x00, 0x46, 0xc6, 0x00, 0x00, 0x00,
  0x00, 0x00, 0x00, 0x00, 0x00, 0xbf, 0x00, 0x00, 0xc0, 0x00, 0x00, 0x00,
  0x00, 0x4c, 0x00, 0xb7, 0x00, 0x00, 0x00, 0x00, 0x00, 0x00, 0x00, 0xc3,
  0x00, 0x00, 0x00, 0x00, 0x00, 0x4a, 0x00, 0x43, 0x00, 0x00, 0x00, 0x00,
  0x00, 0x00, 0x42, 0x00, 0x3d, 0x00, 0x00, 0x00, 0xc4, 0xbf, 0x00, 0x00,
  0x00, 0x00, 0x00, 0x00, 0x00, 0xc6, 0x00, 0xbe, 0xc6, 0xb4, 0x00, 0x00,
  0x00, 0x00, 0xbb, 0x00, 0x00, 0x00, 0x00, 0x40, 0x00, 0x57, 0x00, 0x00,
  0x00, 0x00, 0x00, 0xc0, 0x00, 0x00, 0x00, 0x00, 0x00, 0x45, 0x00, 0x00,
  0x00, 0x00, 0x00, 0x4b, 0xb4, 0x00, 0xb6, 0x00, 0x3c, 0x00, 0x00, 0x00,
  0x00, 0x00, 0x00, 0x00, 0x00, 0x00, 0x00, 0xc0, 0x00, 0x4a, 0x00, 0x00,
  0x00, 0x00, 0x00, 0x00, 0x00, 0x00, 0x00, 0x00, 0x00, 0x00, 0x00, 0x00,
  0x00, 0x43, 0x00, 0x4e, 0x00, 0x00, 0x00, 0xbf, 0x45, 0x00, 0x00, 0x00,
  0x00, 0x00, 0x00, 0x00, 0x00, 0xbb, 0xc6, 0xc6, 0x00, 0xb6, 0x00, 0x00,
  0x00, 0x00, 0x00, 0x00, 0x00, 0x49, 0x00, 0x00, 0x00, 0x00, 0x3d, 0xa6,
  0x00, 0x00, 0x00, 0x00, 0x44, 0x00, 0x00, 0x4d, 0x00, 0x00, 0x00, 0x00,
  0x45, 0x5a, 0x00, 0x3d, 0x3b, 0x3d, 0x00, 0x48, 0x42, 0x00, 0x00, 0x00,
  0x00, 0x00, 0x00, 0x00, 0x00, 0x00, 0xc2, 0xbc, 0x00, 0x00, 0x00, 0x00,
  0x00, 0xc6, 0x00, 0x3b, 0x00, 0x00, 0xb1, 0x00, 0x00, 0x00, 0xc3, 0x00,
  0xb8, 0x00, 0x00, 0x00, 0x00, 0x45, 0x00, 0x00, 0x00, 0x50, 0x00, 0x00,
  0xb4, 0x00, 0x00, 0xb3, 0xb4, 0x00, 0x00, 0x00, 0x00, 0x3b, 0x00, 0x00,
  0x00, 0x00, 0x00, 0x00, 0x00, 0x4c, 0x00, 0x00, 0x00, 0x00, 0x00, 0x00,
  0x00, 0x00, 0x00, 0x00, 0x00, 0x00, 0x00, 0x00, 0xc3, 0xbd, 0x00, 0x00,
  0x00, 0x00, 0x00, 0x00, 0x00, 0x43, 0x00, 0x00, 0x00, 0x41, 0x00, 0x00,
  0x00, 0x00, 0x00, 0x00, 0x00, 0x00, 0x00, 0x00, 0x00, 0xbf, 0x00, 0x00,
  0x00, 0x00, 0x45, 0xba, 0x00, 0x00, 0x00, 0xb6, 0x00, 0x00, 0xbf, 0x00,
  0xb6, 0x3e, 0x47, 0x00, 0x00, 0x00, 0xba, 0x00, 0xc3, 0x00, 0x42, 0x00,
  0xc4, 0x00, 0x00, 0x00, 0x00, 0xbe, 0x00, 0x00, 0x00, 0x00, 0x4a, 0x00,
  0xc4, 0x00, 0x00, 0x00, 0xb4, 0x00, 0x00, 0x00, 0x00, 0x00, 0xc4, 0x00,
  0x00, 0x00, 0xbc, 0x00, 0xb1, 0x00, 0x00, 0x00, 0x49, 0x39, 0x00, 0x48,
  0x4c, 0x00, 0x00, 0x00, 0x00, 0x00, 0x00, 0x00, 0x00, 0x43, 0x00, 0xb6,
  0xbc, 0x00, 0x00, 0x00, 0x00, 0xb1, 0x00, 0x00, 0x00, 0x00, 0x00, 0x00,
  0x00, 0xb8, 0x00, 0x00, 0x00, 0x00, 0x00, 0x00, 0x00, 0x00, 0x00, 0x00,
  0x00, 0x00, 0x00, 0x39, 0x00, 0x00, 0xbe, 0xbe, 0x00, 0x00, 0xb5, 0x00,
  0x00, 0x00, 0x00, 0x00, 0x00, 0xb2, 0xbf, 0x00, 0x00, 0xc6, 0xc1, 0x00,
  0x41, 0x00, 0x00, 0x00, 0xb3, 0x39, 0x44, 0x00, 0x00, 0x00, 0x00, 0x00,
  0x00, 0x00, 0xb5, 0x00, 0x48, 0xb4, 0x00, 0x00, 0x00, 0xb3, 0x00, 0x00,
  0x00, 0x00, 0x3d, 0x4d, 0x00, 0x00, 0x4b, 0x00, 0x45, 0x43, 0x4c, 0x00,
  0xb6, 0x4c, 0xb3, 0x00, 0x00, 0x00, 0x00, 0x00, 0x00, 0x3d, 0x00, 0x00,
  0x00, 0x00, 0x00, 0x00, 0x00, 0x00, 0x00, 0xbf, 0x00, 0x00, 0x00, 0x00,
  0x3b, 0x00, 0x00, 0x00, 0x00, 0x00, 0x4c, 0x00, 0xb3, 0x00, 0x00, 0x3d,
  0x00, 0x00, 0x00, 0x00, 0x00, 0x00, 0x00, 0x00, 0x00, 0x00, 0x00, 0xb6,
  0x00, 0x00, 0xa9, 0x00, 0xc3, 0x3f, 0x43, 0x3b, 0x00, 0x00, 0x00, 0x00,
  0x00, 0x00, 0x00, 0x00, 0x00, 0x00, 0x46, 0x00, 0x00, 0x46, 0x00, 0x00,
  0x00, 0x40, 0x00, 0xc5, 0x00, 0x00, 0x00, 0x00, 0x00, 0x00, 0x00, 0x00,
  0xbc, 0x4a, 0x44, 0x00, 0x00, 0x00, 0x00, 0x00, 0x49, 0x00, 0x47, 0xc2,
  0xc6, 0x00, 0x00, 0x00, 0x00, 0x00, 0x49, 0x00, 0x00, 0x00, 0x3e, 0x00,
  0x00, 0x3e, 0x00, 0x00, 0xb5, 0x3c, 0xbe, 0x00, 0xbc, 0x00, 0x43, 0x00,
  0xc1, 0x00, 0x00, 0x00, 0x4e, 0x00, 0x00, 0x3f, 0x00, 0x00, 0x00, 0x00,
  0x3f, 0x46, 0x00, 0x00, 0x00, 0x00, 0x00, 0x00, 0xbe, 0x5d, 0xbc, 0x00,
  0x46, 0xbf, 0x53, 0x00, 0x00, 0xc6, 0x00, 0x00, 0x00, 0x44, 0x00, 0x00,
  0x40, 0xb3, 0x00, 0x00, 0x00, 0x50, 0x00, 0xb0, 0x00, 0x00, 0x00, 0x00,
  0x00, 0x00, 0x00, 0x00, 0x00, 0x4c, 0x00, 0x4e, 0xb9, 0x3b, 0x00, 0xc3,
  0x00, 0xc4, 0x00, 0x00, 0x00, 0x00, 0x00, 0x00, 0x00, 0x00, 0x00, 0xb9,
  0x00, 0x00, 0x00, 0x00, 0xb6, 0x00, 0xb3, 0x00, 0x00, 0x00, 0x40, 0x00,
  0x00, 0x00, 0x00, 0x00, 0x00, 0xb2, 0xc2, 0x00, 0x00, 0x00, 0x00, 0x00,
  0x00, 0x00, 0xc5, 0x00, 0x00, 0xc4, 0x00, 0x70, 0x00, 0x00, 0x00, 0x00,
  0x00, 0x00, 0x00, 0x00, 0xc1, 0xc6, 0x00, 0x00, 0x00, 0x00, 0xbe, 0x00,
  0x00, 0x00, 0x00, 0x00, 0x00, 0x00, 0x00, 0x00, 0xb8, 0x00, 0x00, 0xc3,
  0x00, 0x00, 0x00, 0x00, 0xc1, 0x00, 0xba, 0x00, 0x00, 0x00, 0x00, 0x00,
  0xb9, 0x00, 0x00, 0x40, 0x00, 0x00, 0x00, 0x00, 0xc3, 0x00, 0x00, 0x00,
  0x00, 0x00, 0x00, 0x00, 0x00, 0x00, 0x00, 0x3e, 0x00, 0x00, 0x3e, 0x4b,
  0x00, 0x00, 0x00, 0x00, 0x00, 0x4d, 0xba, 0x00, 0x00, 0x00, 0x3a, 0xbb,
  0x00, 0xbd, 0x00, 0x00, 0x00, 0x00, 0x3f, 0xc3, 0x00, 0x4d, 0xb3, 0x00,
  0x00, 0xba, 0xbc, 0x00, 0x00, 0x00, 0x47, 0x00, 0x00, 0x00, 0x46, 0x00,
  0x00, 0xba, 0x4c, 0xbb, 0x00, 0xc3, 0x00, 0x00, 0xc7, 0xc0, 0x00, 0x00,
  0x00, 0x00, 0x00, 0x00, 0x00, 0x00, 0x49, 0x00, 0x00, 0x00, 0xc5, 0x00,
  0xc6, 0xc2, 0x00, 0x00, 0x00, 0x00, 0x00, 0x00, 0xb3, 0x00, 0x00, 0x00,
  0x3e, 0x3a, 0x00, 0xb8, 0x00, 0x00, 0x00, 0x00, 0x00, 0x00, 0x00, 0xb6,
  0x00, 0x00, 0x00, 0x00, 0xc7, 0x44, 0x00, 0x00, 0x4e, 0x00, 0x4b, 0x00,
  0x00, 0x00, 0x00, 0xaf, 0x00, 0xc1, 0x00, 0x00, 0xba, 0xc4, 0x00, 0x00,
  0xc0, 0x00, 0xbf, 0x00, 0x42, 0x00, 0x00, 0x00, 0x3d, 0x00, 0x00, 0x00,
  0x00, 0x00, 0x00, 0x00, 0x00, 0x00, 0x00, 0x00, 0xbe, 0x00, 0x00, 0x46,
  0x00, 0x00, 0x00, 0x00, 0x00, 0x42, 0x00, 0x00, 0x00, 0x00, 0x00, 0x00,
  0x00, 0x00, 0x00, 0x48, 0x00, 0x00, 0xb0, 0x00, 0x00, 0x00, 0xb6, 0x00,
  0x00, 0x00, 0xb4, 0x00, 0x00, 0x00, 0x6d, 0x00, 0xc1, 0x00, 0x00, 0x00,
  0x00, 0x00, 0x00, 0x00, 0xbb, 0xc2, 0x00, 0x3f, 0x4c, 0x00, 0x00, 0x39,
  0x00, 0x00, 0x00, 0x00, 0x00, 0x00, 0x00, 0x00, 0x00, 0x00, 0x00, 0x00,
  0xc2, 0x00, 0x00, 0x00, 0x00, 0x00, 0x00, 0x72, 0x00, 0x00, 0x00, 0x00,
  0x00, 0x00, 0x00, 0xbb, 0x00, 0x4a, 0x00, 0x00, 0xc5, 0x3a, 0xc6, 0x43,
  0x00, 0x4b, 0x00, 0x00, 0x00, 0x00, 0x00, 0x00, 0x00, 0x00, 0xbb, 0x00,
  0x00, 0x00, 0x00, 0xb7, 0x00, 0x00, 0x00, 0x00, 0x00, 0x00, 0x49, 0x00,
  0xbd, 0x00, 0x00, 0x00, 0x42, 0x55, 0x00, 0xb5, 0x00, 0x00, 0xc1, 0x00,
  0x00, 0x00, 0x42, 0x4c, 0x00, 0x3c, 0x3b, 0x4a, 0x00, 0x00, 0x00, 0x00,
  0x00, 0x00, 0x00, 0x00, 0xde, 0xe3, 0xfe, 0xff, 0x04, 0x00, 0x00, 0x00,
  0xe8, 0x16, 0x01, 0x00, 0x00, 0x00, 0x00, 0x00, 0x00, 0x00, 0xdc, 0x00,
  0x00, 0x20, 0xdc, 0x00, 0x00, 0x00, 0x00, 0x00, 0x00, 0xd9, 0x00, 0x00,
  0xe0, 0x00, 0x00, 0x00, 0x00, 0x00, 0x00, 0xdb, 0x00, 0xe3, 0x00, 0xde,
  0x1e, 0x00, 0x00, 0xd9, 0x1d, 0x1e, 0x00, 0x00, 0x00, 0x00, 0x00, 0x00,
  0xdd, 0x00, 0x00, 0x00, 0x00, 0x00, 0x00, 0x00, 0x00, 0x00, 0x00, 0x00,
  0x00, 0x00, 0xdc, 0x1d, 0xdb, 0x00, 0x00, 0x00, 0x00, 0x21, 0x00, 0x00,
  0x00, 0x00, 0x00, 0xdf, 0x00, 0x00, 0x00, 0x00, 0xd9, 0x1c, 0x1b, 0x00,
  0x1b, 0x00, 0x00, 0x00, 0x00, 0x1d, 0x00, 0x00, 0x20, 0x00, 0x00, 0x00,
  0x00, 0x00, 0x00, 0xdf, 0xdf, 0x00, 0x1c, 0xe2, 0x00, 0xd9, 0x00, 0x00,
  0x00, 0x00, 0x00, 0x00, 0x1f, 0x00, 0x00, 0x00, 0x00, 0x1e, 0x00, 0xe1,
  0x00, 0x00, 0x00, 0x00, 0x00, 0xe0, 0x00, 0x00, 0x00, 0x00, 0x00, 0x00,
  0x1d, 0x00, 0x00, 0x00, 0x00, 0x20, 0x1c, 0x00, 0x00, 0x1e, 0x00, 0xde,
  0x00, 0x00, 0x00, 0x1e, 0x00, 0x20, 0x1c, 0x00, 0x00, 0x00, 0x00, 0x00,
  0x00, 0x00, 0x00, 0x00, 0xd8, 0x00, 0x00, 0xe2, 0x00, 0x00, 0x00, 0x00,
  0x00, 0xdc, 0x00, 0x00, 0x00, 0x1d, 0x00, 0x00, 0x00, 0x00, 0x00, 0xdd,
  0xdd, 0xde, 0xdd, 0x00, 0x00, 0xda, 0xe0, 0x00, 0x00, 0x00, 0x00, 0x00,
  0x00, 0x00, 0x00, 0x00, 0xd9, 0x00, 0x00, 0x00, 0xdc, 0x00, 0x00, 0x00,
  0x00, 0x00, 0x00, 0x00, 0x00, 0x00, 0xd9, 0xda, 0x00, 0x00, 0xdf, 0xe2,
  0x00, 0x00, 0x00, 0x00, 0xdd, 0xdf, 0x21, 0x00, 0x00, 0x00, 0x00, 0x00,
  0xda, 0x00, 0x00, 0xdd, 0xe1, 0x00, 0xdc, 0x00, 0x00, 0x00, 0xd9, 0x00,
  0xdc, 0x00, 0x00, 0x1f, 0x00, 0x21, 0x00, 0x00, 0x00, 0x00, 0x00, 0xe3,
  0x00, 0x00, 0x00, 0xe0, 0x00, 0x00, 0x00, 0x00, 0x00, 0x00, 0x00, 0x00,
  0x00, 0x00, 0x00, 0x00, 0x00, 0x1b, 0x00, 0x00, 0x00, 0xe1, 0xe4, 0x00,
  0x00, 0x00, 0x00, 0x00, 0x00, 0x00, 0x00, 0x00, 0xdb, 0x00, 0x00, 0x00,
  0x00, 0x00, 0x1e, 0x00, 0x00, 0xd8, 0x00, 0x00, 0x00, 0x00, 0x00, 0x00,
  0xdc, 0x00, 0x00, 0x00, 0x00, 0x00, 0x00, 0x1c, 0x00, 0x00, 0x00, 0x20,
  0xde, 0x00, 0x00, 0x00, 0x00, 0x1d, 0x00, 0x00, 0x00, 0x00, 0x1d, 0x20,
  0x00, 0x00, 0x1f, 0x00, 0x00, 0x00, 0x00, 0x00, 0x20, 0x00, 0x1b, 0x00,
  0x00, 0x00, 0x00, 0x00, 0x00, 0x00, 0x00, 0x00, 0x00, 0x00, 0x00, 0x00,
  0x1c, 0x00, 0x00, 0xdc, 0x00, 0x1c, 0x00, 0x00, 0x00, 0x00, 0xe2, 0xdb,
  0x00, 0x1f, 0x00, 0xe3, 0x00, 0x00, 0x00, 0xd8, 0x00, 0x00, 0x00, 0x00,
  0x00, 0x00, 0x00, 0x00, 0x1c, 0x1e, 0x00, 0x00, 0xdc, 0x00, 0x00, 0x00,
  0xdd, 0x00, 0x00, 0xdd, 0x00, 0xe3, 0xe1, 0x20, 0x00, 0x00, 0x00, 0x00,
  0x00, 0x00, 0x00, 0x00, 0x00, 0xde, 0x00, 0xdd, 0xe1, 0x00, 0x1c, 0xe4,
  0x1f, 0x00, 0x00, 0x00, 0x00, 0xe0, 0x00, 0xda, 0x1d, 0x20, 0x00, 0x00,
  0x00, 0x1f, 0x00, 0x1f, 0x00, 0x00, 0x00, 0x00, 0xdd, 0x00, 0xe2, 0xe0,
  0x00, 0x1e, 0x1e, 0x00, 0x20, 0x00, 0xe1, 0x1b, 0x00, 0x1c, 0x00, 0x00,
  0x00, 0x00, 0x00, 0xda, 0x00, 0x00, 0x00, 0x00, 0x00, 0x00, 0xe0, 0x00,
  0xdf, 0x00, 0x00, 0x00, 0x00, 0x00, 0x00, 0x00, 0x00, 0xde, 0x00, 0x00,
  0x00, 0x00, 0xdb, 0x00, 0x00, 0x00, 0x00, 0x00, 0x1f, 0x00, 0x00, 0x00,
  0x00, 0x00, 0x00, 0x00, 0xe3, 0x00, 0x00, 0x00, 0x00, 0x00, 0x00, 0x00,
  0x00, 0x00, 0x00, 0xe0, 0xde, 0xda, 0x00, 0x00, 0x00, 0x00, 0x1f, 0xdb,
  0x00, 0x00, 0x00, 0xe2, 0x00, 0x00, 0x00, 0x00, 0x1d, 0x00, 0x00, 0xda,
  0x00, 0x00, 0xdf, 0xda, 0x1b, 0x00, 0x00, 0xe3, 0x00, 0x00, 0xdd, 0xe1,
  0x00, 0x00, 0x00, 0x00, 0x00, 0x00, 0x00, 0x00, 0x00, 0x1b, 0x00, 0xda,
  0x00, 0x00, 0x00, 0x00, 0x00, 0x00, 0x00, 0x1c, 0xde, 0x00, 0x00, 0x00,
  0x00, 0xe1, 0x20, 0x20, 0x00, 0x00, 0xe1, 0x00, 0x00, 0x21, 0x00, 0xe2,
  0xdb, 0x00, 0x1b, 0xdc, 0x00, 0x00, 0x1f, 0x00, 0xe4, 0xd9, 0x00, 0x00,
  0x00, 0x00, 0xdc, 0x00, 0x00, 0xe1, 0x00, 0x00, 0x1d, 0x00, 0x1f, 0x00,
  0xe3, 0x00, 0x00, 0xdc, 0xdc, 0xdc, 0x00, 0x00, 0x00, 0x00, 0x00, 0x00,
  0xe0, 0x1e, 0x00, 0x00, 0x00, 0x1e, 0x00, 0xe1, 0x00, 0x00, 0x00, 0x00,
  0x1c, 0xe1, 0xe0, 0x00, 0x00, 0x00, 0x00, 0x00, 0x00, 0xda, 0xdf, 0x00,
  0x00, 0x00, 0x00, 0xdf, 0x00, 0x00, 0x1f, 0x00, 0x00, 0x00, 0x00, 0x00,
  0x00, 0x00, 0x00, 0x00, 0x00, 0x1b, 0xda, 0xdd, 0x00, 0x00, 0x00, 0x00,
  0x1e, 0xe2, 0x00, 0x00, 0xde, 0x00, 0xe2, 0x00, 0x00, 0xdb, 0x00, 0x00,
  0x00, 0x00, 0x00, 0x1b, 0x00, 0x00, 0x00, 0x00, 0x00, 0x00, 0x00, 0x00,
  0x00, 0xe4, 0x00, 0x00, 0x00, 0x00, 0x00, 0x1c, 0x00, 0xe3, 0x00, 0xdf,
  0xdd, 0x00, 0xd9, 0x00, 0x00, 0x20, 0xda, 0x00, 0xe1, 0x00, 0x00, 0x00,
  0x00, 0x00, 0x00, 0x00, 0x00, 0x00, 0x1f, 0xe3, 0x00, 0x00, 0x00, 0x00,
  0xdf, 0x00, 0x00, 0x00, 0x1b, 0x00, 0x00, 0x00, 0x00, 0x00, 0x00, 0x00,
  0x00, 0x00, 0x00, 0x00, 0x00, 0xe2, 0x22, 0x00, 0x00, 0x00, 0x25, 0x00,
  0x00, 0x00, 0x00, 0x00, 0x00, 0x00, 0x22, 0x00, 0x00, 0x1b, 0x20, 0x00,
  0xe3, 0x00, 0x00, 0x00, 0x00, 0x00, 0x00, 0x00, 0x00, 0x00, 0x00, 0xe2,
  0x00, 0x1e, 0xe0, 0x00, 0x00, 0x00, 0x00, 0x00, 0x00, 0x00, 0x00, 0x00,
  0xd6, 0x00, 0x00, 0x00, 0x00, 0x00, 0x00, 0x00, 0x00, 0xdf, 0x00, 0x00,
  0xd8, 0x00, 0x00, 0x00, 0x00, 0xdd, 0x00, 0x00, 0xe4, 0x00, 0x00, 0x00,
  0x00, 0x00, 0x00, 0xdd, 0x00, 0xe0, 0x00, 0x00, 0x1d, 0x00, 0x00, 0xdf,
  0x00, 0xe0, 0x00, 0x00, 0x00, 0x00, 0x00, 0x00, 0x00, 0x00, 0x00, 0x00,
  0x00, 0x00, 0x00, 0x00, 0x00, 0x1c, 0x00, 0x00, 0x00, 0x00, 0xdf, 0xe3,
  0x00, 0x00, 0xda, 0x00, 0x00, 0x00, 0xe2, 0x00, 0x00, 0x00, 0x00, 0x1e,
  0x00, 0xe0, 0x00, 0x00, 0xe5, 0x00, 0x00, 0x1f, 0x00, 0x00, 0xe5, 0x00,
  0x00, 0xe2, 0x00, 0x00, 0x00, 0xdb, 0x00, 0x00, 0x00, 0x00, 0x00, 0x00,
  0xdd, 0x00, 0x00, 0x20, 0x1d, 0x00, 0x00, 0x00, 0xda, 0x00, 0x22, 0xe1,
  0x00, 0x00, 0xdf, 0xdc, 0xe5, 0x00, 0x00, 0x00, 0xdb, 0xdc, 0x00, 0x00,
  0x00, 0x00, 0xd9, 0x00, 0x21, 0x00, 0xdb, 0xe2, 0x00, 0x1e, 0x00, 0x00,
  0x00, 0x00, 0x00, 0x00, 0x00, 0x00, 0x00, 0x00, 0x00, 0xe6, 0x21, 0x00,
  0x1c, 0x00, 0x00, 0x1c, 0xdd, 0x00, 0xd9, 0x00, 0xde, 0x1e, 0xe4, 0x00,
  0x00, 0x00, 0x00, 0x00, 0xdb, 0x00, 0x00, 0x1e, 0x00, 0x00, 0x00, 0x1f,
  0x00, 0x00, 0x00, 0x00, 0x00, 0xe5, 0x00, 0x00, 0x00, 0x00, 0x00, 0x00,
  0x00, 0xe2, 0x00, 0xdc, 0x00, 0xdf, 0x00, 0xda, 0x1b, 0x00, 0x00, 0x00,
  0x00, 0x00, 0x00, 0x00, 0x1b, 0x1c, 0x00, 0x00, 0x00, 0x00, 0x00, 0x00,
  0x00, 0x1c, 0x00, 0x00, 0xe0, 0x00, 0x00, 0x00, 0x00, 0x00, 0x00, 0x00,
  0x00, 0x00, 0x00, 0x21, 0xe5, 0x00, 0x00, 0xe0, 0x1d, 0x00, 0x00, 0x00,
  0x00, 0x00, 0xe5, 0x00, 0x00, 0x00, 0x00, 0x00, 0x1f, 0x00, 0x00, 0x00,
  0x00, 0xda, 0xde, 0x00, 0x00, 0x20, 0xdb, 0x00, 0x1e, 0x00, 0x00, 0x00,
  0x21, 0xdc, 0xde, 0x22, 0x00, 0xe2, 0x00, 0xe4, 0x00, 0x00, 0x00, 0x00,
  0xe4, 0x00, 0x00, 0x1e, 0x00, 0x00, 0x00, 0xde, 0x00, 0x00, 0x00, 0x00,
  0x1d, 0x00, 0x00, 0x00, 0x00, 0xe3, 0x00, 0x00, 0x1b, 0xdf, 0x00, 0x00,
  0x1b, 0xde, 0x00, 0xdd, 0x00, 0xe4, 0x1e, 0x00, 0x00, 0x1f, 0xe1, 0x00,
  0x00, 0x00, 0x22, 0x00, 0xe5, 0x00, 0x1e, 0xe1, 0x00, 0xd9, 0x1c, 0x00,
  0x00, 0x00, 0x00, 0x00, 0x00, 0x00, 0xda, 0x00, 0xe3, 0x00, 0x00, 0xda,
  0x00, 0x00, 0x1f, 0x00, 0x20, 0x00, 0x00, 0x00, 0x20, 0x1f, 0x00, 0x21,
  0x00, 0x00, 0x00, 0x00, 0x00, 0x00, 0x00, 0xdc, 0xe0, 0x00, 0x1c, 0x00,
  0xe5, 0xdd, 0x00, 0x00, 0x00, 0x00, 0x00, 0x00, 0x00, 0x1f, 0x00, 0x00,
  0x00, 0x00, 0x00, 0x00, 0x1c, 0xe2, 0x00, 0xe6, 0x00, 0x00, 0x1d, 0x00,
  0x1b, 0x00, 0x00, 0x00, 0x00, 0x00, 0xde, 0x00, 0x00, 0x00, 0x00, 0xdc,
  0x00, 0xe6, 0x00, 0x00, 0xdf, 0x1c, 0x00, 0x00, 0x00, 0x00, 0x00, 0x00,
  0x00, 0x00, 0x00, 0x00, 0x00, 0x00, 0x1d, 0x1f, 0x1f, 0x00, 0x00, 0x00,
  0x1c, 0x00, 0x00, 0x00, 0x00, 0x00, 0x00, 0x00, 0xe1, 0xdf, 0x00, 0x00,
  0x00, 0x00, 0x00, 0x00, 0x00, 0x00, 0x00, 0x00, 0xdb, 0x00, 0xe0, 0x00,
  0x00, 0x00, 0x00, 0x00, 0x1f, 0x1f, 0x1f, 0x00, 0x00, 0x1d, 0x00, 0x00,
  0x00, 0xe5, 0x00, 0xdd, 0x00, 0x00, 0x00, 0xda, 0x00, 0x00, 0x00, 0x00,
  0xde, 0x00, 0x00, 0x00, 0x00, 0x00, 0x00, 0x21, 0x00, 0x00, 0xe0, 0xe1,
  0xdb, 0x1f, 0x20, 0x00, 0x00, 0x00, 0xd9, 0x00, 0x00, 0x1c, 0x00, 0x00,
  0x00, 0x00, 0x00, 0x00, 0x00, 0x00, 0x00, 0x00, 0x00, 0x00, 0x00, 0xdc,
  0xe2, 0x00, 0x00, 0x00, 0x00, 0x00, 0x00, 0x00, 0x00, 0x00, 0x00, 0x00,
  0x00, 0xdf, 0x00, 0x00, 0x00, 0xe2, 0x00, 0x00, 0x00, 0x00, 0x00, 0xe5,
  0x00, 0x1c, 0x00, 0xe5, 0x00, 0xe0, 0x00, 0x00, 0xe5, 0x00, 0x00, 0x00,
  0xda, 0x00, 0x00, 0x00, 0x00, 0x00, 0x00, 0x00, 0x00, 0x00, 0x00, 0x1b,
  0x00, 0x00, 0x00, 0x22, 0x00, 0x00, 0x00, 0xe0, 0x00, 0x00, 0x00, 0x00,
  0x00, 0x00, 0x21, 0xdb, 0x00, 0xdf, 0xdd, 0x1c, 0x00, 0x00, 0x00, 0xe3,
  0x00, 0x00, 0x00, 0xe3, 0x00, 0x00, 0x00, 0x00, 0x00, 0x00, 0x00, 0x00,
  0x00, 0x21, 0x00, 0x00, 0x00, 0x00, 0x00, 0x00, 0x00, 0x00, 0xde, 0xdf,
  0x00, 0xdd, 0x00, 0x00, 0x00, 0x00, 0x00, 0x1e, 0x00, 0xdb, 0x1c, 0x00,
  0x00, 0x00, 0x00, 0x00, 0xde, 0x21, 0x00, 0xe5, 0x00, 0x00, 0x00, 0x00,
  0x1f, 0x00, 0x00, 0x00, 0x00, 0x00, 0x00, 0x00, 0x00, 0x00, 0x00, 0x00,
  0xde, 0x00, 0x00, 0xdd, 0x00, 0x00, 0x00, 0x20, 0x00, 0xd9, 0xde, 0x00,
  0xe0, 0x00, 0x00, 0x00, 0xde, 0x21, 0xe2, 0xe4, 0x00, 0x00, 0x1b, 0x00,
  0x00, 0x00, 0x00, 0x00, 0x00, 0x00, 0xd8, 0x00, 0x00, 0x00, 0x00, 0x00,
  0x00, 0xe2, 0x00, 0x00, 0x00, 0x7d, 0xd9, 0x00, 0xe1, 0xd6, 0xb8, 0x37,
  0x00, 0xd9, 0x00, 0x00, 0x00, 0x00, 0x00, 0x00, 0x00, 0x00, 0x00, 0x00,
  0x00, 0x00, 0xde, 0x00, 0x00, 0xdf, 0xd3, 0x00, 0x00, 0x00, 0x00, 0x1c,
  0x1e, 0x00, 0x00, 0x00, 0x00, 0x00, 0x33, 0x00, 0x00, 0x00, 0x00, 0x00,
  0x2e, 0x00, 0xde, 0x00, 0x00, 0x00, 0x00, 0x00, 0x00, 0x00, 0x00, 0x1e,
  0x41, 0x00, 0x00, 0x00, 0xd4, 0x00, 0x00, 0x00, 0x00, 0x00, 0x00, 0x00,
  0x00, 0x00, 0x00, 0x00, 0x00, 0x2a, 0x39, 0x00, 0xe5, 0xe0, 0x00, 0x2e,
  0x2a, 0x00, 0xe0, 0xe4, 0x00, 0x2c, 0x00, 0x00, 0x00, 0x00, 0xdc, 0x1b,
  0x2e, 0x00, 0x00, 0x1e, 0x00, 0x00, 0x00, 0x00, 0x25, 0x00, 0x00, 0x00,
  0x00, 0x00, 0x00, 0x00, 0x00, 0x00, 0x00, 0x00, 0xe4, 0x00, 0xcc, 0x00,
  0x00, 0x00, 0x00, 0x00, 0xcd, 0x00, 0x00, 0x1d, 0x27, 0x00, 0xdd, 0x00,
  0x00, 0x00, 0x00, 0x00, 0x00, 0x00, 0x25, 0x00, 0x24, 0xdd, 0x00, 0x00,
  0x00, 0x00, 0x00, 0x00, 0xdf, 0x00, 0x21, 0x00, 0x00, 0x25, 0xcf, 0x00,
  0x00, 0x22, 0xe1, 0x00, 0xcc, 0x1d, 0x2c, 0x00, 0x00, 0x00, 0x00, 0x00,
  0x00, 0x00, 0x00, 0x00, 0x00, 0x00, 0x00, 0x00, 0x00, 0x23, 0x00, 0x00,
  0x00, 0x00, 0x00, 0xde, 0x00, 0x21, 0x00, 0xe5, 0x00, 0x23, 0x00, 0x1b,
  0x00, 0x00, 0x1c, 0x00, 0xd8, 0x00, 0x2a, 0xdf, 0x00, 0x00, 0x00, 0x00,
  0x1f, 0x1b, 0x00, 0x00, 0x00, 0x00, 0x00, 0x00, 0x00, 0x23, 0x00, 0x00,
  0x1e, 0x00, 0x26, 0x00, 0xd6, 0x00, 0x00, 0x00, 0x00, 0x00, 0x00, 0x1f,
  0x00, 0x22, 0x00, 0x00, 0x00, 0x24, 0x00, 0xde, 0x00, 0xe1, 0x00, 0x00,
  0x00, 0x00, 0x23, 0xe0, 0x00, 0x00, 0x00, 0x23, 0x00, 0x00, 0x00, 0x20,
  0x00, 0x25, 0x00, 0x00, 0x00, 0x00, 0x26, 0x00, 0x00, 0xe1, 0x00, 0x00,
  0x00, 0x00, 0x00, 0xe3, 0xdc, 0x00, 0x28, 0x00, 0x00, 0x00, 0x00, 0x23,
  0x22, 0x00, 0x00, 0x00, 0x00, 0x26, 0x00, 0xe4, 0x00, 0x00, 0xd6, 0x00,
  0x00, 0x00, 0x00, 0x00, 0xd5, 0x00, 0xe0, 0x25, 0x00, 0x00, 0x00, 0x29,
  0x00, 0x00, 0x00, 0x00, 0xd5, 0x00, 0x27, 0x00, 0x00, 0x00, 0x00, 0x00,
  0x00, 0x00, 0x00, 0xe3, 0x00, 0xe4, 0xe3, 0x00, 0x00, 0x00, 0x00, 0x00,
  0x00, 0x00, 0x00, 0xe2, 0x00, 0x00, 0x00, 0x00, 0x00, 0x00, 0x00, 0x00,
  0xe2, 0x00, 0x1b, 0xdf, 0xdd, 0x00, 0x00, 0x00, 0x00, 0x00, 0xd5, 0x00,
  0x00, 0x00, 0x1d, 0xde, 0xd6, 0x00, 0x00, 0x00, 0x00, 0x00, 0x00, 0x00,
  0x00, 0xe3, 0x1e, 0x00, 0x00, 0x00, 0xe4, 0x00, 0x00, 0x00, 0x00, 0x00,
  0x1b, 0x00, 0x00, 0x00, 0x00, 0x00, 0x00, 0x23, 0x00, 0x21, 0x00, 0x00,
  0x00, 0xe3, 0x00, 0x00, 0x00, 0x00, 0x00, 0x23, 0x00, 0x00, 0x00, 0x20,
  0xe1, 0x1b, 0xe3, 0x00, 0xd3, 0x00, 0x00, 0x00, 0x00, 0x00, 0x00, 0x00,
  0x00, 0x00, 0x00, 0x00, 0x00, 0x00, 0x00, 0x26, 0x23, 0x00, 0x00, 0x00,
  0x00, 0x00, 0x00, 0x00, 0x00, 0x1f, 0x1e, 0x00, 0x00, 0x00, 0x00, 0xe5,
  0x21, 0x00, 0x00, 0xdd, 0x00, 0x00, 0x00, 0x00, 0x00, 0x00, 0xd6, 0x00,
  0x1e, 0x00, 0x00, 0x00, 0x00, 0x00, 0x00, 0x00, 0xe3, 0x00, 0x00, 0x00,
  0x00, 0xe5, 0x23, 0x24, 0x00, 0x00, 0x00, 0x00, 0x00, 0xe1, 0x00, 0x00,
  0x00, 0x00, 0x00, 0x00, 0x00, 0x00, 0x2b, 0x00, 0xe3, 0x00, 0x00, 0x00,
  0x00, 0x00, 0x25, 0x00, 0xd6, 0x00, 0x00, 0xe2, 0x23, 0x00, 0xd4, 0x00,
  0x2b, 0x00, 0x00, 0x00, 0xdb, 0x00, 0x00, 0x27, 0x00, 0x00, 0x00, 0xe0,
  0x00, 0x00, 0x1c, 0x1c, 0x00, 0xe2, 0x2b, 0x00, 0x00, 0x00, 0x00, 0x00,
  0x00, 0x00, 0x00, 0x00, 0xd4, 0x00, 0x00, 0x00, 0x00, 0xe5, 0x00, 0x00,
  0x00, 0x21, 0x00, 0x00, 0x00, 0x00, 0x00, 0x28, 0x00, 0x24, 0x00, 0x00,
  0x00, 0x00, 0x27, 0x00, 0x00, 0x00, 0x00, 0x00, 0x00, 0x00, 0xdc, 0xe5,
  0x00, 0x00, 0x00, 0x00, 0xd8, 0x00, 0x25, 0x00, 0x00, 0x00, 0x00, 0x2b,
  0x00, 0x00, 0x00, 0x00, 0x00, 0xe4, 0xe5, 0x20, 0x00, 0x00, 0x00, 0x00,
  0x00, 0x00, 0x00, 0x00, 0x00, 0x2e, 0x29, 0x00, 0x23, 0x00, 0x00, 0x00,
  0x00, 0x00, 0xe0, 0x00, 0x00, 0x00, 0x27, 0x00, 0x00, 0xdf, 0xd9, 0x00,
  0x00, 0x00, 0x00, 0x00, 0x00, 0x00, 0x27, 0x00, 0x00, 0x00, 0xd6, 0x00,
  0x1c, 0x00, 0x00, 0x00, 0xd3, 0x00, 0x00, 0x00, 0x00, 0xe4, 0x00, 0x00,
  0x00, 0x00, 0xe3, 0x00, 0x00, 0x00, 0x00, 0x00, 0x00, 0x24, 0x00, 0x23,
  0x00, 0x00, 0x00, 0x00, 0x00, 0x00, 0x00, 0x00, 0xe5, 0x00, 0x00, 0x00,
  0x00, 0x00, 0x1c, 0xde, 0x00, 0x00, 0x00, 0x00, 0x21, 0x1f, 0x00, 0x00,
  0x23, 0x1c, 0x00, 0x00, 0x00, 0x26, 0x00, 0x23, 0x00, 0xe3, 0x00, 0x00,
  0x00, 0x00, 0x22, 0x00, 0x00, 0x00, 0x00, 0x00, 0x00, 0x00, 0x00, 0x22,
  0x00, 0x22, 0x00, 0x00, 0x00, 0x00, 0x28, 0x1c, 0x00, 0x1f, 0x00, 0x00,
  0x27, 0x00, 0x00, 0x00, 0x00, 0x00, 0x00, 0x00, 0xde, 0xe4, 0x00, 0x00,
  0x00, 0x00, 0xdd, 0x00, 0x00, 0x00, 0x00, 0x00, 0x1d, 0x00, 0x2b, 0x00,
  0x00, 0x00, 0x00, 0x00, 0x1d, 0x00, 0x00, 0x00, 0x00, 0x1d, 0xe3, 0xd5,
  0x00, 0x00, 0x00, 0x00, 0x00, 0x1e, 0x00, 0x00, 0x00, 0x00, 0x00, 0x00,
  0x00, 0x00, 0x00, 0x00, 0x1b, 0xda, 0x1d, 0x00, 0x00, 0x00, 0x00, 0x00,
  0x00, 0x00, 0x00, 0x00, 0x00, 0x00, 0x00, 0x00, 0x00, 0x00, 0x00, 0x00,
  0x00, 0x00, 0x00, 0x00, 0xde, 0xe4, 0x00, 0x00, 0x00, 0x1b, 0x00, 0x00,
  0x00, 0x00, 0xdb, 0x00, 0xde, 0x00, 0xdd, 0x00, 0x00, 0x00, 0x23, 0xd6,
  0x00, 0x00, 0x00, 0x00, 0x00, 0x00, 0x00, 0x00, 0x00, 0x00, 0x00, 0x00,
  0x00, 0x00, 0x00, 0x00, 0x00, 0x00, 0x00, 0x00, 0xd8, 0x00, 0x00, 0x00,
  0x00, 0x00, 0x00, 0x00, 0x00, 0x00, 0x00, 0x00, 0xe0, 0x00, 0x00, 0xdc,
  0x00, 0x00, 0x00, 0x00, 0x00, 0x00, 0xdd, 0x00, 0x00, 0x00, 0x00, 0x00,
  0x00, 0x00, 0x00, 0x00, 0x00, 0x00, 0x00, 0x00, 0x00, 0x00, 0x1f, 0xd9,
  0x00, 0x1e, 0x00, 0x00, 0x00, 0x00, 0x00, 0x1b, 0x00, 0x00, 0x00, 0x00,
  0x00, 0x00, 0x00, 0x00, 0x00, 0x00, 0x00, 0x00, 0x00, 0x20, 0x00, 0x00,
  0xe3, 0x00, 0x00, 0x00, 0x00, 0x00, 0x00, 0x1d, 0x00, 0x00, 0x00, 0x1f,
  0x00, 0x00, 0x00, 0xde, 0x00, 0x00, 0x00, 0x00, 0x1f, 0x00, 0x00, 0x00,
  0x00, 0x00, 0x00, 0xe3, 0x00, 0x1c, 0x00, 0x20, 0x00, 0xdb, 0x00, 0x00,
  0xd6, 0x1c, 0x00, 0xd9, 0xe0, 0x00, 0x00, 0x00, 0x00, 0x00, 0x00, 0x00,
  0x00, 0x00, 0x00, 0x00, 0x00, 0x00, 0x00, 0x00, 0x00, 0xe0, 0x1e, 0x00,
  0x00, 0x00, 0x00, 0x00, 0x00, 0x1c, 0x00, 0x00, 0x00, 0x00, 0x00, 0x00,
  0xdc, 0x00, 0xdb, 0x00, 0xdc, 0x00, 0x00, 0x00, 0x00, 0x00, 0xe2, 0xe2,
  0xd9, 0x00, 0x00, 0xe1, 0x00, 0x00, 0x00, 0x1e, 0x00, 0x00, 0x00, 0x00,
  0x00, 0x00, 0x00, 0x00, 0x23, 0xdb, 0x00, 0x00, 0x21, 0x00, 0xe2, 0xd7,
  0x00, 0x00, 0x00, 0x22, 0x00, 0x00, 0xdf, 0x00, 0x00, 0x00, 0x00, 0x00,
  0xda, 0x00, 0x00, 0x00, 0x00, 0x00, 0x00, 0x00, 0xe2, 0x00, 0x00, 0x00,
  0x00, 0xda, 0x00, 0x00, 0xe3, 0xd8, 0x00, 0xdf, 0xd9, 0x00, 0x00, 0x00,
  0x00, 0x00, 0x1e, 0x00, 0x00, 0x00, 0xd9, 0xe3, 0xd9, 0x00, 0x00, 0xd7,
  0x1b, 0x00, 0x00, 0x00, 0x00, 0xe2, 0x00, 0x00, 0x00, 0xdd, 0xdf, 0x00,
  0x00, 0x00, 0xdd, 0x00, 0xde, 0x00, 0x00, 0x00, 0x00, 0x20, 0x00, 0x00,
  0x00, 0x00, 0x00, 0x00, 0x00, 0x00, 0x00, 0x00, 0x00, 0x00, 0x00, 0xda,
  0xda, 0x00, 0x00, 0x1d, 0x00, 0x00, 0x00, 0x00, 0x00, 0x00, 0x1e, 0x00,
  0x00, 0x00, 0xe2, 0x00, 0x00, 0x00, 0x00, 0x00, 0x00, 0x00, 0x00, 0xe1,
  0x00, 0x00, 0x00, 0x00, 0x00, 0x00, 0x1b, 0x00, 0xe0, 0x00, 0x1f, 0xe5,
  0x20, 0x00, 0x00, 0x00, 0x00, 0x00, 0x00, 0x00, 0x00, 0x00, 0x00, 0x00,
  0x1c, 0x00, 0x00, 0xde, 0x00, 0x00, 0x00, 0xd9, 0x1b, 0xdd, 0x23, 0x20,
